[PAD]
[unused0]
[unused1]
[unused2]
[unused3]
[unused4]
[unused5]
[unused6]
[unused7]
[unused8]
[unused9]
[unused10]
[unused11]
[unused12]
[unused13]
[unused14]
[unused15]
[unused16]
[unused17]
[unused18]
[unused19]
[unused20]
[unused21]
[unused22]
[unused23]
[unused24]
[unused25]
[unused26]
[unused27]
[unused28]
[unused29]
[unused30]
[unused31]
[unused32]
[unused33]
[unused34]
[unused35]
[unused36]
[unused37]
[unused38]
[unused39]
[unused40]
[unused41]
[unused42]
[unused43]
[unused44]
[unused45]
[unused46]
[unused47]
[unused48]
[unused49]
[unused50]
[unused51]
[unused52]
[unused53]
[unused54]
[unused55]
[unused56]
[unused57]
[unused58]
[unused59]
[unused60]
[unused61]
[unused62]
[unused63]
[unused64]
[unused65]
[unused66]
[unused67]
[unused68]
[unused69]
[unused70]
[unused71]
[unused72]
[unused73]
[unused74]
[unused75]
[unused76]
[unused77]
[unused78]
[unused79]
[unused80]
[unused81]
[unused82]
[unused83]
[unused84]
[unused85]
[unused86]
[unused87]
[unused88]
[unused89]
[unused90]
[unused91]
[unused92]
[unused93]
[unused94]
[unused95]
[unused96]
[unused97]
[unused98]
[UNK]
[CLS]
[SEP]
[MASK]
[unused99]
[unused100]
΄
˙
!
"
#
$
%
&
'
(
)
*
+
,
-
.
/
0
1
2
3
4
5
6
7
8
9
##0
##1
##2
##3
##4
##5
##6
##7
##8
##9
:
;
<
=
>
?
@
[
\
]
^
_
`
a
b
c
d
e
f
g
h
i
j
k
l
m
n
o
p
q
r
s
t
u
v
w
x
y
z
##a
##b
##c
##d
##e
##f
##g
##h
##i
##j
##k
##l
##m
##n
##o
##p
##q
##r
##s
##t
##u
##v
##w
##x
##y
##z
{
|
}
~
¡
¢
£
¤
¥
¦
§
¨
©
ª
«
»
¬
®
°
´
·
0000
×
÷
ʔ
α
β
γ
δ
ε
ζ
η
θ
ι
κ
λ
μ
ν
ξ
ο
π
ρ
ς
σ
τ
υ
φ
χ
ψ
ω
##´
##΄
##°
##α
##β
##γ
##δ
##ε
##ζ
##η
##θ
##ι
##κ
##λ
##μ
##ν
##ξ
##ο
##π
##ρ
##ς
##σ
##τ
##υ
##φ
##χ
##ψ
##ω
а
‐
‑
‒
–
—
―
‖
‘
’
‚
“
”
„
•
…
‰
′
″
›
⁄
₤
₩
€
₱
™
−
∗
∘
∧
∨
∩
∪
≈
≤
≥
⋅
─
│
⟨
⟩
、
。
〈
〉
《
》
〜
！
（
）
，
－
．
／
：
？
～
και
το
του
newline
να
της
την
με
απο
για
που
τα
σε
ειναι
των
στο
στην
θα
τον
οι
τους
τη
δεν
τις
οτι
μια
ενα
μας
στη
##ων
αλλα
στα
αυτο
εχει
##ες
στις
στον
αν
κατα
σας
ηταν
οπως
μου
ως
πολυ
##ου
μετα
εχουν
πως
αυτη
##τε
μπορει
πρεπει
...
καθε
μονο
δυο
πιο
οποια
οταν
##ει
κι
ενω
σου
ομως
μεσα
τι
##υς
στους
##ουν
προς
##ης
καθως
ειχε
χρονια
ολα
επι
##τα
μεχρι
οχι
##ος
γιατι
χωρις
10
επισης
παρα
αυτα
οποιο
σημερα
δε
ετσι
εκ
ελλαδα
εν
##με
οπου
ανα
μην
δια
νεα
υπαρχει
υπο
συμφωνα
πριν
τοσο
ενας
ακομα
κανει
μη
κατι
μαζι
οσο
##ια
εδω
σαν
μεταξυ
ευρω
##το
πανω
12
##των
00
προ
##αν
ωστε
20
ενος
ακομη
30
τωρα
τροπο
εναν
πρωτη
τοτε
18
απ
ζωη
θεση
##ους
##οι
15
παιδια
##ουμε
11
μεγαλη
εως
φορα
ομαδα
θεμα
gr
##σε
υπαρχουν
αφου
##ται
περιπτωση
εχουμε
πολλα
2018
γινει
##κα
παντα
μεσω
##ση
##μα
λογω
ουτε
χωρα
αυτες
τελος
χρονο
εκει
αλλο
ολες
##τος
περι
νεο
μερος
##να
πρωτο
μπορουν
καλα
γινεται
ωρα
περιοχη
δηλαδη
ιδια
πλεον
000
##σει
ολοι
προγραμμα
κοσμο
ειχαν
χωρο
βρισκεται
ποτε
αντι
εκτος
λιγο
ειτε
μιας
αλλη
##σαν
διαρκεια
στοιχεια
οποιος
στιγμη
##κο
μεγαλο
αποτελει
ιδιο
εαν
χρηση
##εται
##θει
περισσοτερα
16
σχετικα
συνεχεια
κανεις
##τη
κατω
##τι
πολλες
αποτελεσμα
ηδη
λοιπον
σχεση
14
##λα
βαση
##νε
εχω
17
13
εγινε
συστημα
καποια
ολους
2017
ολο
μπορειτε
the
περιπου
##σα
εγω
αθηνα
καλο
πολιτικη
επειδη
κυβερνηση
γι
##σουν
τελευταια
##ρα
ιστορια
αφορα
ελληνικη
25
περισσοτερο
ποσο
##τες
##κη
κυριως
προκειται
##νο
ονομα
κεντρο
αποφαση
εργο
##λη
19
φορες
αλλες
κατασταση
υπερ
πληροφοριες
ειπε
οποιες
αρθρο
##ας
μαλιστα
ωστοσο
πλαισιο
εργασιας
κανουν
εκανε
ολη
24
2016
λογο
##ονται
ζωης
κα
τιμη
αγορα
αυτος
σπιτι
τμημα
εις
διαδικασια
σειρα
πολη
μελη
50
προβλημα
21
πισω
γεγονος
αναπτυξη
καλη
ισως
μα
##τικα
προεδρος
2015
δυνατοτητα
##ικη
φαινεται
καμια
αρχη
ημερα
ξανα
χωρας
##τικη
ιδιαιτερα
μικρο
κοντα
προκειμενου
λειτουργια
100
εχετε
μερα
##ρι
ωρες
αλλων
##er
ειμαστε
επιπεδο
σημειο
εταιρεια
αγωνα
φυσικα
22
##οντας
θεματα
δημου
αυτου
2014
μολις
παλι
προβληματα
##ετε
περιοδο
απλα
πραγματα
τρεις
##κι
##σεις
εμεις
ειμαι
##ing
##μενη
in
εξω
ανθρωποι
αυτων
διαφορα
##δα
αυτον
ολων
μετρα
λεει
com
ετων
##της
##στα
παρ
##στε
ας
νερο
##θουν
αναμεσα
παραπανω
υπηρεσιες
##ικο
##σω
τελικα
##ρια
23
κατ
σημαντικο
γυρω
εφαρμογη
##θηκε
δειτε
τουλαχιστον
##δο
αυτοι
σχεδον
αυτους
υγειας
προιοντα
to
2013
αρ
χρειαζεται
παιχνιδι
συνεργασια
40
αρχες
##εις
κοινο
αυτην
επιτροπη
αρκετα
##κου
##θε
χωρες
διοτι
ελλαδας
τυπου
ακριβως
επιπλεον
παιδι
##σης
δι
συμμετοχη
επιλογη
σημαινει
εργα
ατομα
of
τομεα
προσπαθεια
παραδειγμα
βιβλιο
##ιων
θελει
##ικα
αποτελεσματα
##σουμε
ημερες
παραλληλα
ελληνες
σωμα
28
##τικες
##κων
εξ
μηνες
##του
ευρωπη
μερες
ανθρωπους
##τει
μπορουσε
δικη
αυτης
μπορουμε
αγαπη
διαστημα
ειδικα
βεβαια
μπροστα
2012
εκθεση
πρωτα
υπηρεσιων
εποχη
##σι
εικονα
##μο
ασφαλειας
##τητα
##λι
δημιουργια
εε
παρουσια
δινει
εντος
δουλεια
26
##μενα
αναγκη
τιποτα
πραγματικα
προσφερει
οσα
προσωπικο
μορφη
##τικο
οποιοι
καποιο
βρισκονται
περισσοτερες
αλλους
ευκαιρια
σκοπο
27
λεπτα
περιβαλλον
καποιος
ηπα
καλυτερα
συγκεκριμενα
πολιτικης
##ιες
στοχο
##ζε
##ρη
ελληνικο
ρολο
βαρος
##πα
αναπτυξης
ομαδας
πολης
##ρο
μεγαλυτερη
μελετη
κατηγορια
ελληνικης
εμπειρια
##δε
λα
ξε
συνολο
πλευρα
περα
##μενο
##ιας
χαρακτηριστικα
πε
τιμες
συχνα
##πο
de
##δες
ομαδες
οποτε
δρομο
29
τρια
δωρεαν
αυξηση
ερευνα
##δια
εαυτο
μουσικη
συνθηκες
οικογενεια
τιτλο
2011
αλλοι
##κης
γυναικες
παρακατω
##θη
πορεια
##ως
πια
βιντεο
προσωπο
προγραμματος
απεναντι
κανουμε
χαρα
επιτροπης
##κες
κοσμου
οικονομικη
διαθετει
##δι
31
νικη
υπηρεσια
περιοχες
##λο
δυναμη
κοινωνια
δευτερο
παρει
δικο
επρεπε
πολλοι
ματια
σχεδιο
αναγκες
κυριακη
##ις
χρωμα
νεες
ειχα
θεο
συν
ρε
συμβουλιου
συστηματος
συριζα
κλπ
μελλον
60
δικαιωμα
αληθεια
ευ
γυναικα
##θηκαν
περιπτωσεις
πεντε
υπουργειο
2010
##κε
βραδυ
συνηθως
πει
εισαι
πρωην
εκπαιδευσης
καλυτερη
ανθρωπος
εκεινη
προστασια
λυση
##νει
εργου
θεσεις
ετος
ιδιος
μειωση
ce
μελος
κρατος
καλυτερο
δευτερη
πρωι
and
εξης
σιγουρα
εταιρειας
μαθητες
αποτελουν
κριση
συμφωνια
νεων
πραγματικοτητα
##δη
δεδομενων
##κια
διευθυνση
θεσσαλονικη
υπ
##λε
ενωση
εθνικη
ανακοινωση
δηλωσε
σχεδια
εκδοση
αθηνων
παρασκευη
μικρη
λειτουργιας
δραση
περιλαμβανει
θεσσαλονικης
προιοντων
##τικων
αγιου
νεας
τετοια
καιρο
ενδιαφερον
##σια
προταση
αριθμο
αργοτερα
πα
ανω
βρειτε
αιωνα
αρθρου
αμεσα
διαφορες
μηνα
τριτη
μεγαλες
χα
##ον
www
εκπαιδευση
επιτυχια
βοηθεια
μεγαλυτερο
αρα
επιχειρησεις
ενεργειας
ενεργεια
##βα
χερια
##λια
υγεια
σελιδα
συμβουλιο
νομου
##ζει
προσ
ευρωπαικη
δεδομενα
αναφερει
εχεις
πολιτες
υπουργος
δωσει
ποσοστο
##γα
μαλλον
ελεγχο
αμεσως
ταυτοχρονα
γλωσσα
##es
σχολειο
##ed
ηλικια
γινονται
οσον
οικονομικων
περιοχης
εκκλησια
##al
παραγωγη
φωτογραφιες
βαθμο
αλλαγη
γρηγορα
παει
αλ
ξενοδοχειο
δημοσιο
διαθεση
##ματα
απαντηση
διπλα
γνωστο
χρονου
αι
θελω
καποιες
πω
##ικες
##στη
αριθμος
νεου
οσοι
ελληνικου
εκλογες
##ικων
νο
διαταξεις
εφοσον
##in
θελουν
##οταν
δημο
οκτωβριου
##νια
επομενη
##μενων
##μενες
πανεπιστημιο
κοστος
##μι
αποψη
##φα
πανεπιστημιου
τελευταιο
βημα
δυναμεις
κυβερνησης
ενωσης
εκδηλωση
ποια
ανθρωπων
35
κοινωνικης
ειχαμε
μεσο
οσους
σαββατο
ασφαλεια
ευκολα
καν
παιχνιδια
δεκα
γονεις
##τουν
σημαντικη
πηρε
συζητηση
##μου
80
ταινια
κανενα
λογος
αξια
νοεμβριου
αγωνες
εβδομαδα
κυρια
ιουνιου
##τηκε
##en
σημασια
ξεκινησε
συ
σημεια
ερχεται
τετοιο
εκατ
σα
ειστε
##αμε
ποιος
παντως
οποιων
εργασια
εθνικης
αρχικη
ανθρωπο
δει
κανετε
οποιαδηποτε
εδωσε
τεταρτη
υλικο
αφορουν
λογια
σχεσεις
δευτερα
κινηση
αναφερεται
συναντηση
ελ
αναλογα
##στο
κακο
καθ
παραγωγης
δημοκρατιας
μονη
κοσμος
σεπτεμβριου
τουρκια
λογους
##νων
αγ
συγκεκριμενο
ποιοτητα
εθνικο
φετος
καφε
κανω
##σο
μαιου
εμφανιση
θεου
##γε
παπα
εσυ
χαρακτηρα
χρησης
εξελιξη
δημοσια
νομο
δημοκρατια
θελετε
γενικη
τμηματος
υπουργειου
εχοντας
##χα
ελληνων
στοχος
##is
προστασιας
οικονομια
ζητημα
χθες
δικαιωματα
##σαμε
χωριο
δυστυχως
ισχυει
φυσικο
γιωργος
παιδιων
υποθεση
χρηματα
κατασκευη
γη
μεγαλα
προσοχη
καλοκαιρι
τρι
ιουλιου
επ
επιχειρησεων
##λου
ποιοτητας
45
500
γενικα
δειχνει
##ξε
##σεων
λι
τροπος
χιλιαδες
μικρα
μερικες
ελληνικα
λειτουργει
ιδεα
κομματι
ευρωπαικης
##ιν
ειδη
##us
διαχειριση
φως
κειμενο
ελεγχου
μαρτιου
ιστοσελιδα
##ρε
σημαντικα
δυσκολο
καρδια
προγραμματα
λενε
##για
2009
##μη
##μενος
##πε
υλικα
αλλαγες
κο
90
απε
συνολικα
πραξη
εξωτερικο
δουμε
μαυρο
μελων
προιον
ορους
γινουν
συλλογου
επομενο
ηθελα
δημος
##ιου
κρατους
κοινωνικη
μπορω
ευθυνη
αρχικα
επιχειρηση
εναντιον
##ικης
ημερομηνια
σταση
ενημερωση
on
προσβαση
##ζουν
χαρη
ταξιδι
##θα
70
φαση
περιβαλλοντος
θαλασσα
παρελθον
ηρθε
ετους
θανατο
αναμενεται
αδεια
δραστηριοτητες
χωρου
χωρων
##λης
##ρω
εξι
λαθος
χερι
κε
καποιοι
πηγη
πληρη
συγκεκριμενη
γραφειο
υπηρχε
εδρα
##μαν
προσφορα
τε
θεα
ξερω
εναντι
δηλωση
ελλαδος
la
πολιτων
##ικου
πεμπτη
ευρωπαικο
σωματος
##ωντας
εμας
λιγες
##νος
λιγοτερο
πολιτισμου
πραγμα
οργανωση
οικονομιας
διαχειρισης
ειδους
αγορας
01
πολιτικο
πρωταθλημα
εξαιρετικα
βιβλια
##δων
επιλογες
νησι
υποστηριξη
τοπο
εστω
##νου
2008
συμβαινει
δις
ειδος
αμεση
αλλωστε
κρατη
διοικηση
επιπεδα
μαχη
##μενοι
μερη
πολλους
##στει
αντιμετωπιση
γερμανια
200
κοινωνικο
αυτοκινητο
δερμα
βα
##τον
εκαναν
στ
γραμμη
φερει
υπηρξε
παρεχει
μηνυμα
μερικα
αξιζει
θεωρειται
σχολια
##τω
##δου
εκατομμυρια
θεατρο
##ουσε
μπορεις
κομμα
κλιμα
χωρους
νερου
αλλου
πιστευω
αποστολη
παν
##ia
μοναδες
μακρια
απλως
σχετικη
παραμενει
##th
νδ
εφημεριδα
νομιζω
προσωπα
δυνατο
παραδοση
εννοια
μεση
##ρες
##κος
διεθνη
παιδειας
09
στοιχειων
αποσταση
θεος
εσωτερικο
λιγα
γνωση
εξα
περασει
κου
κυριο
συνδυασμο
πρωτες
##τερα
εναρξη
δεκεμβριου
αττικης
εικονες
σχολη
##σιν
φιλους
οικονομικα
προεδρο
αποφασεις
##λω
απριλιου
##μπα
2007
σχημα
αφορμη
αυγουστου
προσωπικου
προεδρου
επιθεση
θελουμε
χρονος
θεραπεια
##μων
ιανουαριου
αθηνας
μαρια
πολεμο
μακεδονιας
φιλο
εγιναν
δικτυο
γιαννης
περιεχει
co
επειτα
αερα
##πραγματοποιηθηκε
##πη
βοηθησει
φαγητο
καρ
32
διαφορετικα
re
##γκ
φυση
αντικειμενο
ταξη
##le
δημοσιου
στοιχειο
παραλια
ανεφερε
##ονταν
μηπως
προσωπικα
ιδιαιτερη
δικα
προτασεις
ανθρωπου
κοινη
μητερα
for
εργων
συνεντευξη
ουσιαστικα
υψος
πολιτικες
##πι
##φερ
καθημερινα
περιεχομενο
λε
εργαζομενων
πληρως
εξουσια
ιστοριας
αρχισε
μουσειο
ηλικιας
δυνατον
φεκ
ευρωπης
επιφανεια
οικονομικης
βουλη
πλαισια
εσεις
συστηματα
καρα
εταιρειες
μετρο
ποιο
πο
δωματιο
γκολ
ασκηση
##σεως
κεφαλαιο
υποψη
##εν
χρονικο
φωτογραφια
κεντρικη
μεγεθος
φορεις
γνωμη
παγκοσμια
αναλυση
σι
##λες
εκκλησιας
##ρων
τονισε
by
νικος
pro
καθολου
##ρου
περιφερεια
##λυ
δημοτικο
##te
ποδια
υψηλης
07
05
##on
παρουσιαση
δημοτικου
τελικο
ανηκει
εταιρια
##κρι
σπουδων
κατηγοριες
βελτιωση
λαου
πασοκ
μοναδικη
φεστιβαλ
αιθουσα
παγκοσμιο
απογευμα
επαφη
χωρος
αγια
επικοινωνιας
σωστη
##ταν
μαθηματα
##νω
μοναδικο
επικεφαλης
ερευνας
##ζω
##σετε
διε
κρητης
ουσια
κατοπιν
δηλωσεις
τραπεζα
ενισχυση
http
ρο
μαρ
σιγα
06
πολεμου
δα
##τικης
κορ
μυ
##τερ
λεξη
αξιολογηση
##ζα
καποιον
al
##χρονος
περισσοτεροι
ορια
αριστερα
μετρων
φεβρουαριου
γραφει
##ρας
τεσσερις
συμμετοχης
κινδυνο
μονον
ειδικη
βιο
οποιου
οδηγιες
αλλαξει
αναφορα
εποχης
ακολουθει
ντε
παικτες
##os
##ουσαν
ψυχη
##ηθει
κυπρο
ει
καταστημα
δημητρης
λου
πραγματοποιηθει
αποκλειστικα
αποδοση
##or
##ινα
##εκ
ενοτητα
τεχνολογια
ευχαριστω
λαο
ευκολο
πλατεια
τραγουδι
ξενοδοχεια
##ζαν
αρεσει
##ξα
αιτηση
επιτρεπει
08
##ma
επικοινωνια
μυαλο
επιστροφη
πολιτικων
παροχη
αντιστοιχα
δικαιωματων
ατομο
πατερα
33
λευκο
υπαρξει
πεδιο
μοντελο
μεταφορα
παρουσιαζει
##ξη
οποιους
##ουσα
##an
επε
##τηκαν
επισκεψη
καταφερε
τεχνης
εκδηλωσεις
εργασιες
τμηματα
online
δραστηριοτητα
αυριο
##id
##νουν
##νται
βια
κοκκινο
εντελως
##ta
μηκος
##γη
##σου
συλλογη
απωλεια
ταξης
κυπρου
απαιτειται
χρησιμοποιειται
προσφατα
φωνη
δημιουργει
σχολεια
χρηστες
πρωθυπουργος
βρει
ιστορικο
παλια
el
σημερινη
αιτια
τεραστια
σωστα
αιμα
ζητηματα
τεχνη
02
χρονων
νεους
πηγες
##20
ξεκινησει
γυναικων
εκεινο
ελευθερια
facebook
παρασταση
συνεχως
πρωτος
ερθει
##τρε
##βο
παμε
νοσοκομειο
περαιτερω
διοικησης
υστερα
##ντα
04
επισκεπτες
κατευθυνση
παρον
αλλος
παιζει
χρωματα
εισαγωγη
σελ
υπηρεσιας
##τερη
δειχνουν
βασει
κοινωνιας
χρησιμοποιει
αγιο
διαδικασιες
##βι
λογαριασμο
συμπεριφορα
αγιος
##ers
38
36
αισθηση
παρε
πινακα
απλη
κρεμα
##φη
##ζεται
σταδιο
αφ
ηθελε
συντομα
03
φυσικη
ειδικο
βρεθηκε
τυχον
εναντια
γαλα
οδηγει
ανε
τριτο
##τητας
δινουν
##ομαστε
πανε
γεγονοτα
πνευμα
συμπεριλαμβανο
##ριο
##ελ
αγορες
συλλογος
οικονομικο
δω
μπλε
σεζον
##ζη
ερωτηση
διεθνους
γνωστη
περιοδου
##δης
τραγουδια
συνδεση
##ψε
##ar
ειδικοτερα
λαος
ανακοινωσε
αρκετες
2000
κοινου
ημερων
τελευταιες
στιγμες
μπαρ
οθονη
προκαλει
κυριε
τσι
##νης
ελα
λεπτο
ερωτημα
καθηγητης
ωραια
γενικο
κοινοτητα
ευρωπαικου
προσεγγιση
κεντρου
ανδρες
μνημη
γεννηθηκε
κομματος
εξαιρετικη
ανωτερω
ματς
ορο
νομος
παιρνει
##σμα
##τερο
ρα
300
##γει
πελατες
δικαιο
##βη
ωραιο
##um
εγκριση
δυνατη
επομενως
##ντ
επιστολη
τεχνολογιας
λογικη
34
περασε
2006
διαδικτυο
απαιτησεις
δρασης
λαβει
φωτια
le
καταλληλο
βασικο
μαθητων
συνεδριο
be
αποτελειται
τεχνικη
συνεργασιας
συνεπεια
##ποιηση
μουσικης
κριτικη
πολεις
##βε
διατροφη
εμφανιζεται
βι
##it
αντιθετα
κρισης
μπε
τριων
βορεια
##ντι
γαλλια
ισχυ
περ
δικαιου
##ιδης
##10
δεξια
οποιοδηποτε
##ro
σκεψη
σχολειου
μαθημα
στηριξη
λυσεις
γης
οικογενειας
τοπικη
αποφασης
##ισμου
##θω
υπαρξη
υπολογιστη
εσας
##λει
##τσα
κεφαλι
##ter
ερχονται
μπορουσαν
video
κυριος
αστυνομια
μπαλα
ενεργειες
προυποθεσεις
προφανως
##ησει
φτασει
δυνατοτητες
δημαρχος
τοποθεσια
συνεχιζει
ιταλια
εμ
λιστα
προσωπικη
τροφιμων
δημοσιων
παραγοντες
μερους
ληψη
λυ
οδο
στελεχη
##λων
ιερο
χλμ
επτα
διαφορετικο
νυχτα
διακοπες
##χη
βρεθει
προηγουμενο
τραπεζες
no
τελη
ρωσια
οργανισμου
αλλιως
μικρες
##ανα
μεινει
ικανοτητα
απλο
προσπαθειες
εφαρμογης
προκυπτει
##αι
τηλεφωνο
ασθενεις
me
ειδησεις
##τας
βαρους
2019
προσφερουν
τροπους
τυπο
##man
ατομων
εξελιξεις
##co
τεσσερα
αεκ
σημαντικες
αξιας
κανονες
ιδανικο
λεω
εκεινος
παρεα
δρασεις
ολοκληρωση
ελαβε
κινημα
θερμοκρασια
παιδιου
ολοκληρη
ιδεες
κανοντας
αποφασισε
##φο
θαυμα
75
39
##ακι
επισημη
εξωτερικων
δικτυου
απολυτη
εκπαιδευτικων
##στ
ημερας
συμμετεχουν
πλειοψηφια
ομορφο
##ξει
μεγαλου
##νιο
φιλοι
##θουμε
##ιδα
ημουν
συμ
##ρει
##ζονται
μακεδονια
ταχυτητα
εκδοσεις
δυναμεων
ελλειψη
##to
##τρο
απολυτα
μοναδα
ετη
##κτη
2004
καταστασεις
πορτα
χρυσο
υπουργου
απαντησεις
νεος
περιφερειας
κεντρικο
ηλεκτρονικο
αρχιζει
λες
ζει
διαφορετικες
συσκευη
σπιτια
##ντο
μοιρα
μεγαλης
φοιτητες
περιγραφη
##χο
home
μο
##ουνται
πιεση
υπεροχο
γνωριζει
μπει
τραπεζι
διεθνες
κωστας
##μπ
37
αναρτηση
ελεγε
εξαιτιας
πειραια
αρχισει
διαδρομη
σκηνη
απαραιτητο
##ζουμε
ορος
ρι
γιαννη
προηγουμενη
##at
χαρακτηριστικο
σκορ
##μενου
αποψεις
λεξεις
βλεπουμε
επα
ενημερωσης
παοκ
καταστηματα
προσπαθει
γραφεια
##σον
προιοντος
φωτο
εμενα
λεπτομερειες
##δει
γραμμες
##mm
ποσοτητα
εξετασεις
43
τελικη
##re
υψηλη
αρχαια
##ομαι
##il
##ly
διαβαστε
εγκατασταση
##ρης
##de
προσκληση
ξερει
##τσι
καθημερινη
συμβαση
##ερ
καταναλωση
ομαδων
στυλ
αντιθεση
##ry
en
εγ
πι
δεκαετια
δημιουργησει
τομεις
##ic
πιστη
αριθμ
παρουσα
πρωτοβουλια
##τρα
ολοκληρο
εγκαταστασεις
2005
μαλλια
##δω
τηλεοραση
55
ρυθμιση
σχολης
##ch
δωρο
πολλων
τσιπρας
μενα
βιβλιου
πατερας
42
ελεγχος
βασικα
βαθια
επιχειρησης
δωματια
εδαφος
γηπεδο
##ra
εισοδο
μισο
επανω
κεντρα
ελπιδα
μεγαλων
νοημα
διαφορετικη
χρηστη
κρητη
κομματια
δυσκολη
ηλιο
ηλεκτρονικη
καθαρα
ζε
λεμε
##σιμο
ερ
εντολη
μεσημερι
κλικ
χρησιμοποιωντας
bar
υπηρχαν
##ρος
πατριδα
##ne
πιθανο
##ιος
πραγματικη
καθεστως
ποσα
εργασιων
##τικου
ορισμενες
χρησιμοποιουν
##st
ποικιλια
ντα
καπου
γευση
συνεδριαση
αναφερονται
διευθυντης
##γκα
εκτελεση
τσιπρα
υποχρεωσεις
καθαρο
44
εγραψε
συνε
νοτια
καλυτερες
ζωα
υπουργο
news
βο
καθενας
ηλεκτρονικου
ευκολη
##ωθει
οργανισμο
δημοσιας
καντε
πραγματικο
##ωμα
##δικα
προσωπου
υψους
δρομους
48
##κιν
ατμοσφαιρα
##ωνει
41
καταστροφη
τηλ
πληροφοριων
δυτικης
σχεδιασμο
##ge
σκοπος
προσφορες
θε
επεξεργασια
νου
##ζοντας
στοχους
τοποθετηση
##νοι
υλοποιηση
##et
ομιλια
προβολη
τοπου
αντιδραση
##ντας
εφτασε
πολιτικα
οργανα
υπολοιπα
φιλικο
καλυψη
δομη
θεωρει
απαραιτητη
εφ
διαφορων
εθνικου
πραγματι
σωστο
επιτρεπεται
κατε
γνωριζουμε
##λας
##μια
βαθος
ξεκινα
πρωινο
##οπουλος
αρκει
εργαζομενους
##ακια
##ινη
τεχνικες
σχετικο
κανενας
##τυ
##εσαι
αιτημα
βαθμους
σοβαρα
##na
ορ
κειμενα
τω
υποχρεωση
αμ
κρα
απολυτως
βαρ
##μος
μμε
##ot
πτωση
live
συνθεση
χριστου
κορη
##κας
κυ
επανα
ιδιοι
##ηση
κω
sa
##νουμε
νησια
##χει
γα
ταινιες
##θο
πληθυσμου
αργα
ισραηλ
##ην
θεωρια
εντονη
λο
400
συνεπως
##ξι
απευθειας
πληθος
βλεπω
μελετες
πλανητη
ειδικες
κορυφη
ιερα
συγγραφεας
αρχης
πραξεις
##ie
ιωαννης
##χρησιμοποιουνται
αγωνιστικη
γεν
σημα
φαινομενο
βλεπει
##io
αμα
σοβαρο
συμβει
ονοματα
γνωριζουν
συστηματων
χασει
##λευ
γωνια
κατοικους
λιμανι
κινητο
πηγε
κατασκευης
site
ομορφη
65
στρατηγικη
τουρκιας
αγωνας
αιγαιου
google
απαραιτητα
αξιολογησης
ομιλου
##ακη
αντικειμενα
τυπος
παλιο
πουμε
εργαλεια
##ησε
αρχειο
##as
υποστηριζει
ιστορικη
ετοιμα
δρ
##φων
150
εβδομαδες
οριο
συγκεντρωση
league
τυχη
##ριου
συγκριση
κινησεις
εφαρμογες
di
κουζινα
ελληνικων
ρουχα
##ιζει
καποτε
##στουν
βγει
διαδικασιας
φερ
συμβουλος
κωστα
πρασινο
κομματα
##30
κριτηρια
σημειωσε
προυπολογισμου
οδηγησει
##ce
εξυπηρετηση
##γο
λειτουργουν
ελαχιστο
##δρα
ro
##υσε
super
βηματα
εξαιρετικο
συμφεροντα
δοθει
εμφανιζονται
##αρ
ερευνες
st
##ματος
απαιτει
χρειαζονται
##ορ
συγχρονη
συμβασης
προγραμματων
κινα
##el
ζη
πασα
νερα
διαστασεις
διαγωνισμο
χρειαστει
##ur
δικαστηριο
φτανει
πρωταθληματος
βασικη
μπο
βραβειο
αμερικη
μιλαμε
σπα
κοινωνικων
##ωσει
επιστημονες
οικογενειες
##μερ
ζουν
εσωτερικη
μοιαζει
αγιας
παντου
κυκλοφορια
##μενης
##ion
χωρια
γιορτη
ειδα
γεωργιος
ελληνας
μονος
κκε
νε
βουλευτης
ζητησε
παρουν
##κει
ονομασια
εστια
##στρα
##στηκαν
μι
λπ
##φι
##da
##12
εκτιμηση
##se
σω
τει
οφειλεται
στε
##λος
προωθηση
αναλαβει
δελτιο
συσκευες
ισο
##δυ
##ine
##κινη
μεγαλος
αξιο
##ακης
ειδε
69
do
##pa
αναζητηση
εκπροσωπος
πλουσια
ιδρυμα
μεταφορας
σχεδιου
##συ
##ανε
διεθνεις
δικες
εργαλειο
κοντρα
βοηθα
is
γενικης
κοινοτητας
##40
car
αριθ
ερωτησεις
δοξα
##καν
κατοικοι
ιδιαιτερο
##ul
κρασι
θανατου
σχεσεων
##60
##σιο
γλωσσας
##τρια
εξοδα
web
ταση
διαθεσιμο
βασικες
ελευθερη
ελληνικες
αρθρα
##νεται
##ειται
παντοτε
##αλ
καταλληλη
##50
νησιου
επισημα
τεραστιο
καταργηση
κεντρικης
δυσ
οικονομικες
μιλησε
σταθμο
##μεν
αφηνει
φορεα
βαλει
διαθετουν
τετοιες
υπεροχη
επιλογης
##αρι
κατηγοριας
νεοι
θεσεων
δημητρη
συγ
γιο
εκανα
κωνσταντινος
νομοθεσια
##εστε
fi
διαγωνισμου
##ινο
εκπομπη
γνωσεις
σοφια
περιοδικο
υποβολη
κτιριο
πρακτικη
μορφες
blog
θετικη
##μενους
##σκα
υπολοιπο
οδηγος
46
ενταση
διοργανωση
σκληρο
περαν
διατηρει
καλες
πλοιο
ξενοδοχειου
2003
##ηθουν
##τια
επαγγελματιες
εξεταση
διατηρηση
ζωνη
οργανωσης
εργαζομενοι
προερχεται
χρεος
##ναν
καιρος
email
αφησε
σκεψεις
εγγραφη
χαρτι
καρτα
##χε
τιποτε
τραμπ
ζω
##σαι
δηλ
2001
μπου
na
at
σπορ
αυτοκινητου
χαρ
##γων
δυσκολα
τουρισμου
συνταγμα
##ωση
μπα
κυκλο
συναισθηματα
ορισμενα
εφερε
χρεους
κρι
cf
δυναμικη
κοινωνικες
εσοδα
θεωρω
καπως
αντ
210
##στες
τελειο
διατροφης
ταμειο
συνεπειες
τραπεζας
προκαλεσει
συμμετεχει
##ti
αλλαζει
ρυθμισεις
ιστοριες
##σμο
επεκταση
κωδικα
τελεια
##κλη
λεγεται
##ικος
σεξ
ιδιως
ανηκουν
κεφαλαιου
ακρο
εκπαιδευτικο
συνολικη
παγκοσμιου
χατζη
##λογια
οδου
ελενη
οποιας
πρωτ
ομορφα
απα
βουλευτες
γενικοτερα
συστατικα
mail
ματι
σελιδες
εταιριας
δηλωνει
##πληρω
πιθανοτητα
##ποιη
λεφτα
##εσ
παρεμβαση
##φαν
ονομαζεται
αγωνων
##24
επιλεξτε
##70
πρωτου
##στηκε
μασ
συνεχισει
##εια
φορεων
αυτοκινητα
απειλη
λαθη
υλικου
τοπικο
εσωτερικων
ενδιαφεροντος
χωριου
##στι
##25
ζητα
θελεις
ρυθμο
σο
newlinenewline
υποβολης
##ρυ
επισημο
49
##ικ
ακολουθουν
πολιτεια
εκατονταδες
συνελευση
αρωμα
δεσμευ
##ισμο
εγγραφο
##στικο
ψηλα
ονειρο
υπογραφη
##ζι
##son
δεη
σετ
μελετης
βρε
##βαλ
χο
συνορα
αλληλεγγυης
τουτου
##εων
πονο
λαδι
κερδη
βλ
ιδιοτητες
τοσα
δημοτικη
ηγεσια
υδρο
##οπουλου
##σκ
εστιατοριο
δινοντας
επαγγελματικη
επανασταση
ειρηνη
αυτοκινητων
παπουτσια
ισχυρο
##γαν
κοινωνικα
φυλλα
προβλεπεται
εκτ
κρατων
##ir
δυσκολιες
κοινοβουλιο
φα
αγγλικα
internet
αποκατασταση
##15
δεκαετιες
προσφυγες
πωληση
βρισκοταν
επομενες
απασχολησης
πολιτη
επιστημονικη
συμμετειχαν
ταυτοτητα
εισοδημα
ζευγαρι
βεβαιως
##ton
κτλ
##καρ
καταφερει
ξυλο
ξερεις
##μπε
πολ
συνεργατες
οριζεται
αλα
βερ
κανεναν
στομα
λυκειου
λογου
οργανισμος
ευρυ
ζα
##ou
85
προχωρησει
##τροπ
αερο
αγκαλια
post
πρωτης
ρου
δωσουν
##εως
ar
παροντος
##λογι
προυποθεση
##φυλα
##γου
95
απαντησε
πειρα
##sa
μαμα
βουλης
##διο
##ψει
εντονο
ειπα
ιδιωτικο
δειξει
μηνων
99
ρευμα
κατοικων
κιλα
προβληματων
βρηκε
ιδιου
γενικου
μανα
αθλητες
υψηλο
επιπτωσεις
εκθεσης
γαρ
##me
ιατρικη
2002
αμυνας
ηττα
στρατου
αντε
##ξαν
εξοδο
χρηστος
παραμενουν
φερνει
δημοσιευση
συμπτωματα
προτεινει
επενδυσεις
οικο
my
λεγοντας
##ml
##ation
σημειωθει
εντονα
αντιστοιχο
##βερ
ειδων
αποκτησει
προμηθεια
σταθερη
ερντογαν
φυσικου
##χωρη
##μυ
τουτο
##σκε
παλαιο
βρετανια
ανοιχτο
αε
ανθρωπινο
εξουσιας
χιλιομετρα
κυριου
##μον
χρηματοδοτηση
βρεθηκαν
δεκαδες
χαρι
φυσικης
καρκινο
##ησουν
στρατο
##θι
##ιτ
##πουλος
con
##ba
επιτελους
##περ
συνταγη
συμφωνιας
αναδειξη
εκταση
κανονικα
##ιστα
hotel
προεδρε
νωριτερα
αεροδρομιο
εμεινε
ανθρωπινη
οκτω
σεναριο
επιθυμια
αντιπαλο
##14
##τερες
υλικων
παρουσιασε
##80
τοπικης
σχετικες
γλυκο
καμ
επιπεδου
##κομ
μηνυματα
μενει
##χρονη
##li
mar
γραμμα
##γκο
αναλυτικα
mo
φοβο
##ad
δικαιοσυνης
γευμα
αιματος
an
διαταξη
προετοιμασια
##ri
##οτητα
σημερινο
##ωμενο
ακριβεια
##ψα
##νγκ
##λαν
ντι
##λεγ
δικαιοσυνη
##στερ
κορυφαια
οδηγησε
ch
γυναικεια
τιμων
σκα
ισχυος
δη
##ριες
βασιζεται
κερδισε
φπα
52
εργαστηριο
47
εκπτωση
ποδοσφαιρο
##ig
αφησει
ερευνητες
φροντιδα
συγκεκριμενες
μελι
πινακας
γρ
καλει
πορων
ξερουμε
περισσοτερους
as
κερδισει
##προ
περιλαμβανονται
ακολουθησε
αστυνομιας
##90
περιεχομενου
εμφαση
φαρμακα
ημι
νωρις
##ησαν
ελληνα
##ca
θετικα
μεγαλυτερες
##19
ενδο
θερμο
σειρας
βασιλης
παιζουν
δυτικη
τακτικη
##στων
##16
ανδρων
αχ
οξυ
αγαπημενο
προσφατη
δισκο
σαρ
φιλη
##χωρι
εδειξε
ενταξη
##11
μικροτερο
προτυπο
ευκαιριες
##πουλου
αναφορικα
σταθερο
μηχανη
##λιου
τροφιμα
ανεξαρτητα
παροχης
windows
δαπανες
υπευθυνη
συνεχη
##πλα
αρχεια
250
##ραν
οφειλει
μεγιστη
θετικο
βιβλιοθηκη
εκεινα
παρακολουθηση
##χι
αναφερθηκε
αρχων
ασφαλισης
##ζετε
λαμβανει
ακ
γρηγορη
media
αξιες
καλυπτει
αναγνωριση
##ωμενη
διοικητικο
εκεινοι
συρια
συνταξη
pa
new
μηχανικων
χριστο
##υλα
συντηρηση
προσθεσε
εχασε
μιλωντας
##ts
γε
περιμενει
τρε
οποιον
διαμονη
δινεται
μωρο
##σκι
τιτλος
εδρας
γου
σταματησει
γεωργιου
αλλον
δεδομενου
##ιδη
οραμα
καταστασης
μπασκετ
ποιες
##ψι
σχεδιασμου
##ποιει
πασχα
παρολο
αντιμετωπιζει
τελει
παρισι
##ματων
συνεβη
ευχαριστη
more
##ισμος
προβλεπει
##ιδου
##go
διαρκειας
##ant
ηρακλειου
##μαρ
πας
βε
επεσε
δημιουργουν
ba
θυσια
ισπανια
ερμηνευ
επιδραση
κινδυνος
πελατη
##θεν
man
##ty
βραδια
ανοιγει
διεθνης
δρομος
##ol
ακρη
am
μοναδων
δρα
χρησιμοποιηθει
μπανιο
ομορφια
καμερα
προσπαθουν
πηραν
κολ
παναγιωτης
##νοντας
κρεβατι
σπιτιου
ενεργο
παι
περιλαμβανουν
ξαφνικα
ιδιες
ολοκληρωθει
##ογλου
αντιδρασεις
οργανων
120
οντως
πρακτικες
##ψηφι
κωδικο
εδωσαν
δολαρια
δυναμικο
περνα
##18
σχεδιασμος
##ut
πχ
κινδυνου
εγγραφα
δντ
##ντερ
διπλο
ισχυρη
ολυμπιακος
συλλογο
καριερα
##di
γαμου
παρκο
##ηθηκε
ζουμε
σπουδες
all
ηλεκτρονικα
54
##τζι
πιθανον
βοηθησουν
##ina
ματ
##be
cm
υποστηριξης
οφελη
##τητες
προτυπα
πολιτισμο
##κερ
νικο
##νονται
σταδιακα
##ινε
τοπικες
##la
##νικη
##do
φυλλο
χειμωνα
αρχισαν
se
επιθυμουν
##μπο
εφε
συζητησεις
##τζ
κατοχη
πλατη
##στικη
it
κυκλοφοριας
μουσικο
παιξει
δραστηριοτητων
go
πελατων
##ομενη
κοριτσια
τοπος
##ga
πρωτευουσα
εξωτερικη
ζητησει
##που
συμβολη
δημιουργιας
##τελ
οσων
ειδικων
περιοδος
εταιρειων
##πραγματοποιειται
##χρονο
ελευθερο
ενδειξη
διαμερισμα
600
##δρομ
φιλοσοφια
ζεστο
ταμεια
##ετα
γκρι
πλε
ανοιξε
μεσων
μεταναστες
##κοι
##σες
συγκροτημα
ενδεχομενο
##ειο
υπευθυνος
https
καναμε
εξαλλου
ολυμπιακο
βλεπουν
πεσει
αποτελεσματικη
βαρυ
51
κον
δηθεν
συνολικο
mm
μεθοδο
μπλοκ
οδηγουν
αναβαθμιση
ιωαννινων
εξε
da
δημιουργησε
πληροφορικης
πλουσιο
μαι
γενια
##σθει
διδασκαλια
παιρνουν
64
καποιους
επομενα
σταυρο
βρουν
θεια
##κυ
γνωστος
αγωγη
γλυκα
προοπτικη
κοιτα
##ψη
##στου
εκεινους
δημιουργηθηκε
δρομου
67
αλατι
ερωτα
εκδηλωσης
κλα
προορισμο
υφασμα
##τοι
οφελος
ελπιζω
φυγει
κοριτσι
ανοιξει
εφυγε
φορο
ερμηνεια
##σεν
##φυ
γραψει
τροποποιηση
γιος
αλλαγης
##μπι
γεματο
καταλαβει
πολεμος
##σλ
##ποι
##ss
απολυτο
χαρτη
θεματων
παπανδρεου
δεχεται
θες
οτιδηποτε
αποστολης
προσωπων
##ξω
προερχονται
προκληση
ma
πυρ
σχολιο
ζημια
συμμετειχε
αναφερουν
##δος
##τερων
θερμα
εντυπωση
ομο
εκαστοτε
vi
##am
πακετο
πατρα
γραμματεια
στερ
διαμορφωση
θυμαμαι
##ριων
##γωγ
εξωτερικου
εμπορικο
αξιοποιηση
αντιμετωπισει
##17
53
##ψουν
##ard
καθηγητη
εξαιρεση
αγωγης
ληξη
βιομηχανια
up
ανατολικη
αντιληψη
τοιχο
κοστους
ζωων
δερματος
εκδηλωσεων
κλαδο
##ιδες
##κατα
αγχος
προσωπικων
βορειο
ανοιχτη
##χου
σχετιζονται
δεκαετιας
56
##αρα
58
##υπο
##δικο
ισχυουν
επιστημη
##lo
γυρο
πεντα
κινηματος
επιτευξη
συνδεεται
##νικο
παιδεια
##ωσε
πολιτικου
κεφαλαια
εξοπλισμου
ετησια
##ner
πρωθυπουργου
καθημερινοτητα
##λογη
##ni
ξερουν
διοικητικου
τσα
προκαλεσε
φερουν
συνο
##κω
προσβασης
δικτυα
πρακτικα
αναγκων
οπλα
σεβασμο
##ρευ
αγροτικης
you
##ent
##σμου
ii
περιεχουν
θυματα
βολτα
εξαρταται
αντικατασταση
1999
πεθανε
##ee
ηπειρου
κλειστο
χριστος
γινοταν
δεις
##ρκ
αρκετο
εμπιστοσυνη
##υμ
ερωτηματα
συναυλια
art
γαμο
μεγαλυτερα
εξοπλισμο
μοντελα
##στης
αδυναμια
##λερ
γιωργο
τεχνικων
γενικος
ικανοποιηση
##cm
##si
##σκο
##λιο
εκφραση
αρμοδια
ικανο
παρεχουν
κανα
##τρι
σουπερ
επιθυμει
δο
γιου
εγγυηση
ac
προκαλουν
##ατε
μυστικο
σκια
αναφορες
ντο
ζαχαρη
##βια
μπορεσει
we
φορμα
διασταση
##ll
αποφασεων
εικοσι
μεταφραση
κακη
χρονικη
##τιθεται
lo
γνωστα
ενδεχεται
dr
ομοσπονδια
χορο
πρωθυπουργο
σημαια
σημασιας
κενο
περυσι
παιχνιδιου
##λαντ
στοιχημα
ουρανο
φαντασια
ιδρυση
χαμηλο
τιμης
εσοδων
αντιθετο
τοπιο
οχηματα
αισθημα
##τουμε
greece
θεωρουν
παγκοσμιως
##13
##ωθηκε
φι
cd
υπαλληλων
κλεισει
ολοκληρωθηκε
ταιριαζει
αντρες
##ak
πνευματικη
βασιλειο
αριστερο
βιας
##σις
ηχο
παραμεινει
λαικη
εκπληξη
pe
sp
διοργανωνει
μενου
κωνσταντινου
χορηγηση
γερμανιας
αρεσε
κωδικος
ορων
bo
##ωρο
χρημα
υγρο
ευτυχως
συμμετεχοντες
##ωρη
συνα
αλλοτε
##θεραπεια
ha
μεγιστο
προφιλ
περιμενουμε
εισοδηματος
ιωαννη
59
παιδικη
διευθυντη
##δας
2020
συζυγος
προληψη
greek
πετρελαιου
αξιοθεατα
ποιοι
επεισοδιο
συσκευασια
ψωμι
παρουσιαζουν
επιλεξει
ογκο
κινησης
##ηλ
συγχρονο
εβαλε
φυσης
αιγαιο
σοβαρη
##επι
τσε
συνειδηση
παραθυρο
αναγκαια
##ποιηθει
μικρου
κατανοηση
ακολουθησει
ακουσει
γραμματεας
εμπειριες
χρυση
παρομοια
σκοπους
μαθει
##35
αγαπης
μιλαει
αυτοματα
δουν
αννα
##mo
απουσια
##τικος
μπηκε
βγαλει
li
τετρα
αντισταση
##λογιας
πηγα
παθος
##sh
##κους
φρουτα
ενδεχομενως
##σσα
οργανο
ημεριδα
βαλ
κοινοβουλιου
χρηστης
γεωργια
τρα
τοπικα
αποδειξη
υποδομων
αεπ
κλειδι
παω
δωρα
##φρα
##ουλα
πλευρες
φιλος
βλεπεις
αδειας
προτεραιοτητα
##πια
##παρ
λειτουργιες
συμβουλες
57
αντιστοιχη
μπαινει
δημιουργηθει
ιδανικη
επιστημων
ανελαβε
##ian
αποκτηση
κοινωνικου
λαβετε
εκεινες
##pe
ιστοσελιδας
##ρον
##βαν
##σατε
ασκησεις
βγαινει
καθαρη
γονεων
ραντεβου
αποτελεσει
γραφειου
##νετε
σκληρη
επιθεσεις
##ουσι
ανατολη
εμποριου
πιστευει
##φε
τοις
λονδινο
ηλιου
μνημονιο
πληθυσμο
##χθει
αξονα
φραση
κυκλοφορησε
ιατρικης
ασια
##ha
βασιλια
επεξεργασιας
##ka
επο
σαφως
ρολος
##τσο
ιστορικα
##τηριο
ξενων
αρη
χαμηλη
τραπεζων
ασκησης
κυμα
τουρκικη
χωρισ
μεθοδος
84
##σπ
ροζ
προδιαγραφες
σταυρος
ad
##ιστες
καταθεση
αναφορας
ιδιοτητα
συγγραφεα
αλεξανδρος
συνεχιζεται
προσφυγων
δοθηκε
φουρνο
ετικετες
μειγμα
ειπαν
υποψηφιος
μηδεν
##ερα
apple
ιραν
διαδικτυου
απεργια
δαπανη
εντυπωσιακο
νι
##οντα
tv
νικολαου
διακοπη
##mg
##ξια
αθλητισμου
εμποριο
φιλε
##ρικα
πωλησεις
μεγα
νατο
περναει
αεριου
επαγγελματικο
πνευματικο
##μβ
led
wi
κρυο
he
##ωσαν
αριθμου
βαθυ
δραστηριοτητας
δωδεκα
ευθυνης
μυθιστορημα
##ies
ko
κουμπι
πανελληνιο
72
##ντη
##σιας
παραγει
αττικη
συζυγο
αλμπουμ
or
επικινδυνο
περασμα
ανεση
επενδυση
πιστευουν
δεκ
προσθηκη
θρακης
πραξης
so
παγκοσμιας
αναλαμβανει
πειραιως
βλεπετε
διακοσμηση
αντιμετωπιζουν
πληρ
εστειλε
συμπερασμα
μπολ
δανεια
ψη
προσφορας
##age
φε
κυβερνησεις
μακ
βουλγαρια
##no
μαυρη
##σκοπ
οργανωσεις
ανατροπη
##στικα
λιγη
##ναι
σπανια
εγκλημα
πινακες
πανηγυρι
παιδικο
κοπο
##ψαν
ιδρυθηκε
περιοχων
πληρης
πετρα
μονα
κλινικη
οπλο
διαθεσιμα
##28
κτιρια
ερτ
ταξι
ουσιες
ευθυνες
κατερινα
one
νοσοκομειου
πλακα
αξεσουαρ
επεμβαση
συμβολο
λαμβανουν
1997
σχολειων
ενωπιον
ιο
οχηματων
μνημης
γραμματα
περιγραφει
ιδρυματος
ελε
πλοια
du
with
##ci
σκι
καλος
ποινη
φαινομενα
##ιον
γκα
εξακολουθει
κηπο
σημειωνεται
ιι
κυρ
##ζο
##ρχ
##σιες
στιγμης
εκλογων
μαν
##99
ταινιας
πατηστε
##σμενη
th
ποδοσφαιρου
##land
προσευχη
δημοτικης
περιουσια
πατ
διευθυνσης
##bo
συνεχισε
κινειται
γιωργου
800
ολοκληρωμενη
83
ποσου
##22
##λιν
αμερικανικη
ενδιαφερει
ανοιξη
ρεκορ
απελευθερωση
μεταφορων
ενοτητας
παρεμβασεις
εξισου
καθυστερηση
περισσοτερη
ανοιγμα
παραδοσιακο
##σμενο
##παν
διαγνωση
αρχηγος
σταθερα
αριστη
##ang
ονειρα
ξερετε
##απο
ευχαριστουμε
ποντους
ακινητων
παραταση
βρεις
ειδαμε
##ιμο
παραγγελια
ευρωπαικες
##21
##λλα
ασθενων
μικρων
προθεση
ψυχο
απαντησει
##νικα
προσπαθησε
κλαδου
##ησεις
ελευθεριας
επενδυσεων
επιστρεψει
τελετη
καθενα
σκου
λιμνη
##im
##γγ
ηλεκτρο
προυπολογισμο
στενο
απευθυνεται
ηρακλειο
καταλληλα
##ξουν
επιλεξετε
χρησιμοποιησετε
γεφυρα
σεμιναριο
68
φυτα
σταθμος
περιστατικο
οχημα
ανελ
##45
καλλι
απαντα
αμυνα
black
ομιλος
γρηγορο
καταπολεμηση
διχως
εισοδου
ρωσιας
φιλια
σεπτεμβριο
τεταρτο
αλκοολ
##un
πλην
##ατ
τμηματων
hotels
σπουδαιο
βγηκε
χειρο
ιδιωτικου
παραστασεις
προπονητης
μακαρι
κατανομη
δοσεις
εκφραζει
##36
ευρυτερη
##γρ
##ai
ανθρωπινων
γενικες
μικροτερη
φυλακη
##23
αγιων
euro
συνταξεις
κρατηση
προηγουμενες
ποδι
τονιζει
σαββατοκυριακο
ηθοποιος
χρησιμο
αποδοχη
ξεκιναει
οδηγο
ανδρεας
περιμενουν
##βαλλ
##75
##βου
οροι
σημειωνει
περασμενη
συνιστα
αριστερας
##ko
##εξ
φυσικων
νομους
βασεις
μονιμη
οψη
απασχοληση
χαν
υποστηριζουν
##πες
νομικο
πισινα
καπ
ιστο
απαραιτητες
διαρκως
αρχαιο
θεσης
βαζει
φυ
επιστρεφει
παραμονη
ζημιες
ολυμπιακου
καλλιτεχνες
στηριξης
προβληματος
##βλεπ
63
εταιριες
##στροφ
ψυχης
κανονισμου
κρατα
ποσοστα
##ομενων
##ιρ
##αδα
κειμενου
πραγματοποιησε
##και
##gr
χριστουγεννιατι
##ιζουν
αγγλια
ομοσπονδιας
ροη
62
##θηκα
can
free
##νους
ξεκινησαν
πλευρας
θεατρου
διαφορους
πεινα
τελειως
ελαιολαδο
πραγματοποιουν
τροφη
twitter
διαβασει
μεταφερει
κυπελλο
συσταση
θεσσαλιας
πανεπιστημια
διαλογο
μαιο
cookies
ανδρεα
περιθωριο
πατρων
δυνατα
ηλεκτρονικων
μιλησει
##ive
##ea
project
παραδειγματα
πλατφορμα
iphone
##ινες
παραρτημα
υποψηφιων
ευρωπαικων
συνοδο
νη
81
σενα
λαχανικα
##συρ
μπορουσα
ημασταν
χανιων
sh
βλα
περασμενο
αναζητησης
φετινη
##μμ
μεταναστων
σαλονι
##ix
ιουνιο
##ιλ
##σχε
βαζουμε
στελεχων
##ρουν
αγροτες
un
ομιλο
νικολαος
συναντησεις
συγκεντρω
##σιων
πολιτικοι
δειγμα
μετωπο
1998
##ment
et
##ποιησης
ινστιτουτο
ασ
λαρισα
αγωνια
παροτι
φορ
πληροφορια
υλη
μιση
συνεδριου
κρεας
περσι
φιλων
συνθηκη
ψηφο
##em
δεσμευση
gu
νση
μεγεθους
παραδοσιακα
##ργη
νικου
αποδοσης
##ιοι
συνεδρια
εμφανισεις
ταξιδια
##ac
προσληψη
καταφεραν
air
σεξουαλικη
group
club
##υρα
ιησου
##χρονου
καποιου
##ξο
ιδιοκτητες
βρισκει
66
σκοπια
καθηγητες
γεματη
εκδ
γκου
ξεχωριστη
συρ
μαθηματων
ανατολικης
μαντ
πορους
παικτης
##ip
συμφερον
βιβλιων
λογισμικο
ικανοτητες
κουλτουρα
ορθο
λογικο
μικρος
ανθρωπινου
περασαν
λαρισας
##αδες
κυριακης
##ros
οποιονδηποτε
##ωθουν
κοντο
τηλε
πλαστικο
εσ
##χων
υπνο
θεματος
82
τουρνουα
κουρ
παρακαλω
sc
##ποιειται
γερμανικη
ρευματος
φοιτητων
##ist
καλ
χρηστων
φρα
##01
98
χει
##πον
γκι
γυαλι
καρδιας
χρησιμοποιουμε
αιτησεις
##ei
αφηνοντας
τευχος
συμπερασματα
φορου
##ρικο
νοε
θεωρουμε
δοση
θανατος
συμβολαιο
μεγαλους
κοινης
κει
##ριας
ακρα
##ωσουν
χειροτερο
πρα
πετυχει
βασιλη
συμβασεις
##επ
επαρχια
μονοι
ισορροπια
νομιμο
αλεξης
προχωρησε
τοπικων
εξηγει
ανοδο
φυτο
πολιτικους
##27
συγχρονες
sport
βοηθουν
star
##υλο
οικονομικου
##γραφια
σιωπη
##βλη
ουσιαστικη
ελαχιστα
συγκρουση
ιουλ
ασφαλη
ερευνων
ξεχωριστο
δημαρχου
##ινουν
μεθοδους
κοπελα
##ξεις
61
##κρατ
τυρι
αποφασισει
σκηνοθεσια
καθιστα
play
ex
υποψηφιοι
##γι
ιδρυ
οδηγια
τουρκοι
χανει
καινουργιο
πελοποννησου
##τιμη
γυ
##οπ
βιου
εκπαιδευτικου
βελ
παρασκευης
πειτε
εισοδος
ψυγειο
αυξανεται
θεωρουνται
διαταξεων
παρουσιαζεται
ne
βοηθαει
##κοπ
παρουμε
πουθενα
ρυθμους
πραγματων
διακριση
σταυρου
##σων
ετοιμο
αποτελεσματικα
##vi
δημιουργωντας
ενιαιο
off
ανετα
εκατο
πωλησης
διεθνων
δημοσιες
παρουσιασει
σοκ
στρα
##τζα
εικονας
74
αυγ
υπομονη
pre
πολιτικος
τεστ
επιστημης
βεβαιωση
αριστο
τυχαια
ξενο
μηκους
κυκλοφορει
εκδοσης
αμερικης
καθαρ
##ιζεται
πιστο
σαμαρα
ζησει
συνεχιζουν
γυναικας
ra
##χυ
εκπροσωποι
κυκλος
βρω
αφαιρεση
νοτιο
επιλυση
υποθεσεις
##39
αποτελεσματων
υπολογι
αλλαξε
πολιτειες
πιθανοτητες
δαπανων
καταβολη
θρησκεια
ειδικοτητα
γιατρος
ριζες
ηθελαν
βαρια
εγκεφαλο
καρκινου
##λικα
συνολου
εκδοχη
##29
παραγραφου
υπε
αυξημενη
βασι
##ωμενα
αμεσο
αυγουστο
ασχολειται
##ps
χρησιμοποιησει
##86
ζητουν
##πων
σαφες
1990
εχ
αλε
πολιτης
ακου
αφιερω
ειδικης
73
οσες
καστρο
γυμνασιο
φθινοπωρο
σερρων
social
γραφη
επεισοδια
παναθηναικος
out
μετοχων
καλυψει
ενταξει
##σσο
##νερ
παραδοσης
##λογος
αρνητικα
##λογων
χριστουγεννα
λαιμο
καταναλωτες
φαρμακο
ανοιχτα
ποσοτητες
κοπ
δρασεων
θη
απευθυν
νομισμα
αγαπημενη
καλλιεργεια
προπονητη
εξοδου
συνταγματος
ψαρια
δημοσιευμα
88
εξο
κιολας
ατομου
γυμνασιου
##ψω
γραμματεα
διαλυ
##ity
ινδια
αιτησης
##γω
αρχιτεκτονικη
##26
παρακολουθει
θυμα
ta
rock
συμπληρωση
επιλεγει
##τους
##37
##υχ
##ετ
χαμογελο
καναλι
φαινονται
αποτελεσματικο
θεραπειας
εσπα
##ελα
##μαι
ελαιο
##69
##στρε
κυπελλου
σχολικη
##38
##μω
προπονηση
ελληνο
##mp
##κτον
##ομενος
οκτωβριο
ανησυχια
##σμενα
αυλη
υψηλου
##mi
αντιπροεδρος
εφαρμοζεται
ιαν
αρχικο
##σιου
κων
ζωντανη
θετει
ανεργιας
επαγγελματικης
180
διο
πατε
γεω
οπτικη
γερ
##66
ουρα
##λλη
δομες
αυστραλια
φρεσκο
89
καταλογο
επεστρεψε
ηρθαν
μονιμο
ξεκινουν
##ιερ
αιωνες
χε
λιπος
##οντες
οηε
##δερ
86
##vo
##ler
ταυτοτητας
##λοι
κομματων
##βαρ
συμβαλλει
μερικοι
συνισταται
ειδικου
κατασκευες
συνδεονται
τζι
επισημαινει
δυσκολες
ανερχεται
κυτταρα
ικα
χρηματοοικονομι
##up
##ζοταν
καιρους
βγαζει
εναλλακτικη
κλεισιμο
συναισθημα
εκθεσεις
καταληγει
jo
##βιο
προκυπτουν
συμπαν
ειδηση
κυριες
##αιρε
##πλε
##ινι
αυ
αξιολογη
σχολικο
##32
επηρεαζει
γιατρο
##τυπ
προσωπικοτητα
##εζ
τελειωσει
συνδρομη
##ct
παρετε
71
κανονικη
πρακτορειο
μοναδας
νομικη
pi
ηνπ
ποιον
##λογικη
γνωριζετε
γλωσσες
αποφυγη
##ιτη
τεχνων
θυμιζει
πρ
φασμα
πετυχε
τυχαιο
##pi
λογισμικου
απαιτουνται
φωτα
chat
αλι
read
υπηρξαν
στρατιωτικη
##τζη
συνταγες
1000
ρεπορταζ
καθηκοντα
##πρα
φορτ
αναγκαιο
##ομενα
##σθ
περασουν
δημοσιογραφος
βλεμμα
##ιζε
##δον
βασιλειου
1994
##γερ
παρακαλουμε
καινουργια
συγχρονης
##lin
καλυ
κριτηριο
καλαματας
βοηθησε
πιστευουμε
εισ
ελευθερα
92
ιδρυματα
αντωνης
ιδιοκτησιας
βουνο
αλεξ
ca
νομοθεσιας
χαρακτηριζεται
επικεντρο
##χαν
επιστημονικο
μαζευ
##ke
ka
ηλεκτρονικης
αυξανει
##ιντ
φο
εφαρμογων
1996
νοσοκομεια
αραγε
ηθικη
##ιτς
παναγιας
αδυνατο
επιμελεια
δεξι
##κλα
##der
##ow
στρατηγικης
##χω
σαλ
##φου
βρουμε
τασεις
min
##στικων
##ωτη
δυτικα
ταχυδρομειου
παραλιες
καταρτιση
##ap
αληθινο
##ber
ισα
76
περιορισ
πληρωμη
ουκ
##συν
μεσου
διδασκαλιας
τεχνολογιες
νικες
αναγνωση
καλεσε
87
βρα
##μπερ
νομικα
αυγα
πηρα
##υπ
καταγραφη
μπι
ελαχιστη
κατοικια
ποιηση
παρουσιαζονται
κυπρος
εργαστηρια
δημων
##ντια
##0€
λαβουν
αναλυ
νομοσχεδιο
συναρτηση
πηγαινει
##δευ
υπολογιζεται
εισιτηρια
επιτρεπουν
##ολα
δωσουμε
λυκειο
συντομο
ενοψει
πορτες
γνωριζω
κολπο
τεχνικα
συμφεροντων
ανδρας
γκο
ενε
αλεξη
πορτοκαλι
φου
στενα
δικαιολογητικα
διαιτα
αισθητικη
σοβαρες
κοινα
πιθανοτατα
##ice
κυκλου
τελευταιων
αιτησεων
ζωο
αρκετοι
##bu
ανευ
##γορ
μπορουσαμε
κτιριου
τσο
##za
γελ
αποσπασμα
μιχαλης
εστιατορια
δημητριος
γνωσης
σκε
χαμηλα
πεδια
##ργι
πλαισιου
##ny
οκτ
αναγκης
κρατικο
πλεονεκτημα
μπουν
##ακ
αλληλεγγυη
πεφτει
κουρα
##ιλα
##αγ
τρελα
εξαμηνο
αθλητικο
κρατησει
##μης
σκηνικο
##ωσης
τεχνικο
##γραμ
##ημενο
77
αγαπημενα
συμβασεων
βυζια
προκλησεις
##po
διαθεσιμοτητα
συντηρησης
ευχομαι
δικαστικη
προθεσμια
##46
γαλλιας
σχολες
ημερολογιο
καταγραφει
σκεψης
θαλασσας
##one
λειτουργησει
συνθηκων
πολλη
περιφερειακο
1995
##τσε
##σας
κοιλια
καταρτισης
ηλια
διαγωνισμος
σχετιζεται
##ωρ
ανεργια
ho
δημοψηφισμα
υπολοιπες
ειρηνης
φαρμακων
μιχαηλ
σιγουρο
εκπαιδευτικους
##βρα
ιουλιο
##νιου
μουσειου
εγκαινια
δημ
θεραπευ
##κτα
##ell
πληρωμης
##ωδη
εθνικα
εννεα
πρακτικο
εκμεταλλευ
σκληρα
συγγενεις
χι
δεικτη
εκμεταλλευση
##ek
##λον
##διων
per
δημητριου
ιδιους
αγρο
εκλεισε
##ill
ελληνικος
διεξαγωγη
οργανισμους
ενηλικες
προσφεροντας
##καλυπτ
τετοιου
προστατευ
προκηρυξη
περιφερειακης
περιπετεια
##δικη
μιλα
εμπορικη
top
79
##ταρα
ελεγα
po
τεθει
αρχι
προσωπικες
αποθηκευ
ζωντανο
##our
δυναμικου
ναρκωτικων
πνευματος
σφ
ιστοτοπο
78
θελαμε
mac
υλοποιησης
τρο
προσφερουμε
χρησιμοποιειτε
ασκ
κερκυρα
world
παε
700
σκοτ
χυμο
##33
φακελο
διεξαχθει
μπραβο
ντου
παρων
##ana
εργοστασιο
παρεχεται
επαναληψη
αγορι
χρονιας
παλ
##ιτιδα
παραγραφο
ακρως
##les
κινδυνους
##υμε
αει
συχνοτητα
επαγγελμα
πολιτισμος
##49
##τινα
προε
συνεληφθη
μαρτιο
ανακοινωσεις
αναμετρηση
πιθανη
ενδιαφεροντα
πολυτιμο
παρολα
αξιοπιστια
λαικο
δεδομενο
##τητος
##τομ
κοζανης
προοδο
υφος
εθνος
design
εμπ
πληκτρο
##ite
παρουσας
ξενοδοχειων
##νησι
λουλουδια
αμφι
μπερ
δικιο
δραμα
παιδικα
συνοδευ
γνωστες
παγκο
ψηφιακη
ανδρα
εγκαταστασης
δυναται
κανονα
δανειων
εγκαταστασεων
διακο
97
συναδελφους
παυλος
service
υπολογιστων
ανθ
νικολα
##τικοτητα
οριζει
##ποιουνται
υπεροχα
##68
δηλωσει
αφρικη
πολιτιστικο
αρης
χρηματοδοτησης
##ζου
λευκα
τεσσαρων
ηρωες
συνοδου
γενιας
παρακολουθησης
συλλογων
απαιτουν
δημαρχο
##γραφο
##ιστων
##ight
ακουγεται
εισηγηση
ροδο
τραγωδια
##est
ξα
προσθετουμε
αποπειρα
ιερας
επιτευχθει
##τσου
συμπ
fa
καρτες
ασπρο
φωτος
φερεται
διαδικασιων
εμφανιστηκε
##φορ
κανε
συνολικου
προβλεψεις
μηχανηματα
χρονικα
πρωτων
βιταμινη
μικρους
##ζητ
περιφερειακη
ρη
αποτελεσε
##ρακι
##ηθηκαν
σεμιναρια
στρατος
##ron
ουτως
##σχ
συμβαινουν
96
αποχωρηση
σχεδιων
πιατα
μελους
αποκτα
δοκιμα
κουτι
##res
σωτηρια
ασφαλως
##ηκε
κουβα
##79
θεσει
πρωτοι
βρισκομαστε
καλυτερος
κρο
##op
νεκρο
ευαισθησια
##ζον
συνδυασμος
πληρωσει
δικτυων
μαθετε
σκαφος
υψηλα
ηχου
εξετασ
εκατομμυριων
κατεληξε
συγχαρητηρια
##ran
εργαζεται
κινηματογραφου
##om
προκυψει
απωλειες
##κλει
περιουσιας
##υλι
συνδεσης
##he
##χια
προσε
μαρινα
μυστικα
σεπ
επιβολη
τρεχει
κυριαρχια
προοπτικες
φαν
##ινων
θεατρικη
υορκη
καλουνται
##55
δουλειες
ιανουαριο
μακρυ
##ωσεις
αγρια
##σμων
παραγγελιας
επαγγελματικα
υποστει
##διαπραγματευσεις
ισ
χιλ
article
συνοδευεται
ιππο
υποχρεωτικη
πατρι
microsoft
αποκαλυψη
τερμα
##67
διαγραφη
πιστοποιητικο
κυριοι
su
##τισμου
##κτο
βου
##tion
απαγορευση
##πω
δευτερος
ειδικοι
τριτων
εκρηξη
εθνικων
σωματειο
μαυρα
##tic
ζεστη
μαλλιων
στοχων
ελαφρυ
ελευθερος
αυγη
94
φτιαξει
κομ
συνδεσμο
##μοι
σημαδια
επιμερους
ιδιας
φορεας
κατεχει
δυσκολια
παναγια
πρωτοτυπο
alpha
εφημεριδες
this
1992
##95
##31
συνδεσμου
πρωτοβουλιες
μονοπατι
βασιλιας
μελετων
θεληση
ερθουν
ιντερνετ
παροχες
##ρισ
##34
βρυξελλες
κυριολεκτικα
συλληψη
##γκου
μαθησης
ηγετες
αβ
##ιωτης
δεντρο
##88
εφημεριδας
αντιστοιχει
##ομενο
αντιπολιτευσης
##στος
εξετασεων
συμπεριφορας
χασετε
##στικες
open
##σσ
αξιοπρεπεια
αποκαλυψε
##γιο
εκπαιδευ
χωροι
τριμηνο
ατομικο
πετα
προηγουμενα
αστυνομικους
##ph
τελ
pc
μεταφρασ
πολι
πρεμιερα
αναγνωρι
μαθηματικα
δεικτης
inter
παραμυθι
ντυ
δεξιοτητες
αριστερη
μερκελ
αμερικανικο
##ster
μηχανες
υπαλληλοι
##ag
##ταρ
διασφαλιση
μοναστηρι
υψηλες
power
παρω
ευτυχια
##65
##gen
αντιγραφο
##πτ
##09
##γον
##nd
ετησιο
##βελ
ακτη
international
ip
γαμ
γερο
βουνα
προεκυψε
παντων
εργαζονται
αφηνουμε
##υσαν
εκπαιδευτικη
κινητηρα
εφαρμο
##ντες
μητροπολιτης
αφενος
δυση
δευτερολεπτα
μανια
φυλακες
ηθικο
ph
υπα
παραχωρηση
##θια
##ισα
##βρ
εγγραφων
αρνητικη
καταστηματος
1993
red
δειπνο
μονης
##per
93
εφη
##48
κατακτηση
φανηκε
##dy
δογμα
πλανο
πληρες
cy
ευρηματα
νοεμβριο
μετρια
##va
πανα
τελειωσε
hd
βορειου
γραμμης
##ηθη
λαμβανοντας
##λεια
κοτοπουλο
εξεφρασε
δασος
τριαντα
##ah
##τρεπ
μπουρ
##θυμ
κλιμακα
##bi
σταδια
δυναμης
##net
προσεκτικα
##ec
ver
τηλεφωνα
μεγαρο
λεωφορειο
αντοχη
shop
αγα
line
##γονο
ανθρωπινης
επαιξε
##78
αποφασιζει
εδαφους
οπωσδηποτε
χρεωση
usb
επιπλα
διαρκει
βλαβη
δουλευει
ηεο
##ιζ
εκπροσωπους
βουλευτη
αλεξανδρου
##che
εθνικες
##64
μπαταρια
##oc
αστυνομικοι
παραγοντας
επιστημονικα
επαφες
##πλη
επικρατειας
##hi
##χειρι
αποτυχια
ση
ηλιος
περιμενε
συναλλαγες
##ινει
επιδοσεις
λιπαρα
athens
##and
αμμο
αρνηση
ειδησεων
μαθηματος
επιτυχιες
φωνες
##ance
δεκεμβριο
μειωνει
εσενα
ανεβα
ηλεκτρικο
υπαρξης
στηθος
αναλογη
info
##ini
ποδηλατο
σωματικη
ονοματος
##tra
βολου
βρηκα
απρ
ag
αντιθετως
ανθρωπινα
ξεχωριστα
δημους
συγκροτηση
τοπους
1974
##85
γερα
##ιζονται
σηκω
##44
##νθ
γαλλικη
απεχει
σταθμου
προστατευει
αρνητικο
ενοικιαζομενα
σημειωση
βαθμολογια
στοχοι
ακολουθη
επιδερμιδα
νοσου
##τηρα
δολοφονια
ανατολικα
επικρατει
διαβασα
θαλασσια
πεις
##τηρια
μεγαλοι
##φω
ενημερωνει
μασαζ
εσωτερικα
##λεξ
κλεινει
δυτικο
##ure
μνημονια
τσαι
##era
χαρακτηρες
καλε
##γρα
τεχνικης
εναρξης
εξοπλισμος
youtube
χωμα
ps
λογοτεχνια
bi
##02
παναθηναικο
κασ
παραιτηση
αγωνιστικης
αυτοματο
##72
##ιμ
αξιων
στρατιωτες
ταμειου
##εχ
πετρος
επιχειρηματικη
σκοταδι
τροφες
μηχανισμο
δημοτικων
προκριση
αρχιζουν
δημιουργειται
επελεξε
δημητρα
##κτ
τομεας
##υργ
λογοι
αγορων
αλλ
android
εντυπωσιακη
χρυσα
##08
##αρια
##ινου
διαταραχες
καθαρισμου
διατιθεται
τιμωρ
max
ιταλιας
δημοσιευ
##lt
εποχες
ιδιοκτησια
υποδομες
αποκαλυπτει
ανταλλαγη
χιλιαδων
λειτουργικο
αρχ
καναδα
##ομενοι
δεντρα
στειλει
##tor
ταξεις
μεσογειο
περιλαμβανεται
##ino
συνεργα
προτου
##ρατ
ποταμι
##ινης
##76
εδ
##πολη
##οσ
παπαδοπουλος
##ate
γιατροι
##ue
ενδιαφερουσα
ωρων
##able
διαλογου
λειπει
προελευσης
mi
θερμανσης
θερμανση
##τελεσματικοτητα
ολοενα
pdf
εξεδωσε
χειρουργικη
πρωτον
γελα
##σμος
μιλουν
αγνωστο
##ετο
συναλλαγων
ρομα
ακολουθωντας
σωληνα
αυτοδιοικησης
ελεγαν
##γες
μενουν
απριλιο
##05
καλειται
sta
παγ
νευρο
lu
περιεργο
ιστορικου
ενημερωσει
στηλη
##νδρ
##news
ενεργοποιηση
συμμετασχει
em
##ιδας
ελεγχει
συντομη
μητερας
αληθινη
##οκ
ρυθμισ
διανομη
πασ
ενδειξεις
περιοδους
εκτελεσης
##σημα
ολοκληρωμενο
##ολογια
ανανεωση
οργη
χρηματοπιστωτικ
show
μμ
san
καινοτομια
επικαιροτητα
##απ
##ier
αιτηματα
δημιουργησουν
συναδελφοι
μορφης
##61
ροδου
επιστροφης
##ζονταν
ιδιοκτητης
καταναλωσης
χρεη
αφηστε
οδηγησαν
γιαγια
εκπαιδευτικοι
υποστηριξε
γραφ
αρκετη
mg
##εμ
ανακοινωνει
##74
συνδυασ
πιεσης
ευρεια
ποδοσφαιριστες
μινι
##θειτε
σουτ
εμποδια
χρηματων
λεπτομερεια
βουληση
ετοιμη
αναζητουν
συγκ
ψυχολογια
αναλογο
##τζης
οικογενειακο
##47
προβλεψη
##ong
αλλαζουν
σταθεροτητα
καποιων
##71
ρωμη
υπαλληλους
αντρα
μαχ
ακολουθησαν
##υρων
χανια
δικαιωματος
##θετη
εζησε
μαρα
συνταξεων
βρηκαν
τουρκους
ημων
μερια
βασης
##μιο
sch
##ισμα
εγγραφης
καλυπτουν
κυκλοφορουν
##λικο
καταγωγης
γαλακτος
ασθενη
πορτογαλια
col
τηρηση
##γαλ
##que
συντροφο
##νιας
κατοικιας
αντιπολιτευση
σωματειου
ιστοσελιδες
ψηφοφορια
business
ιδιωτικη
ποτο
ανθο
οικ
τουρκικο
ειδικους
αφιξη
net
εντυπο
διερευνηση
μνημειο
καναλια
επαλ
σεισμο
ml
πραγματοποιησει
ni
καταγγελια
κορυφαιο
χαμηλοτερη
πλεονεκτηματα
ανθρακα
αφετερου
αλυσιδα
παρατηρησεις
συνολικης
1980
εκπ
##φορα
απαγορευ
μορια
απαιτηση
πηγαινε
παραδοσιακη
καταρρευση
##ειων
ξηρο
app
τηγανι
συμπληρωμα
##σθε
##χος
αιγυπτο
ουσιων
αυξηθει
πανο
##ροι
δικους
##000
γκαμα
αθλητικα
γεννα
##ish
καλου
καμπ
στηριζεται
σωματα
pan
οργανισμων
εντολες
αρπα
##56
##νταν
βασικος
ολλανδια
##λογ
ποτα
##ρεα
εκλογη
κολα
τερ
απεκτησε
αντιμετωπισης
διασκεδαση
##ast
ενδεικτικα
##pp
##τισμο
ετοιμοι
##ταξι
ταχυ
##παρα
συμφωνη
υπαρξουν
φεβ
##γμα
τυ
εμφανιστει
μαγαζι
ουσιας
##γεν
καλουμε
παρτι
αδια
πραγματοποιηση
δυσκολευ
##βω
ηνωμενες
περιστατικα
##ft
91
ανασα
καθοδηγηση
ελαβαν
ασχοληθει
##ημερο
##βουν
ενημερωσε
εξασφαλισει
ja
σκονη
εκστρατεια
ραδιο
fm
ασθενεια
nu
ραδιοφωνο
##νακι
πολεων
ηλιας
##ds
κτιριων
επισκεφθειτε
καταλαβα
λυπη
##ib
ποταμου
σπ
αποβλητων
αδειες
πραξεων
πωλησεων
αλλαξουν
##rs
μαθητη
λογαριασμου
##ρνα
αρχαιοτητα
εκεινων
συγγραφεις
δουλειας
απολαυσετε
χιου
εργατικο
οδος
πιστα
δημοσιοτητα
αμερικανος
σταθμους
μετριο
ντοκιμαντερ
σαμαρας
##αυτο
##06
ενισχυσης
plus
##eg
διεθνως
σαραντα
βουτυρο
γερμανοι
αντρας
αποδεικνυεται
παικτη
σημειωθηκε
##τινη
μετ
γυμναστηριο
προβει
βραβευ
αναζητα
##ab
##θων
##στοι
δευτεροβαθμιας
##ella
παρελθοντος
##fa
εννοιες
διαλυση
βρισκεστε
απαγορευεται
##στω
πτυχιο
##θος
##ισθη
κραταει
##pt
ντερμπι
##θρα
ποτηρι
τζακι
life
ετερο
καταγωγη
διοργανωσε
##τατο
αποθηκευση
μακρο
παραγωγικη
ανωτατο
αγαθων
μοναχα
νοσηλευ
ζωες
πυρηνα
μπαλκονι
##ερι
##φορε
επιρροη
##ris
δικαστηριου
συνδρομο
καθαρισμο
παρατηρηση
εισβολη
απολλωνα
##tes
##ther
τρεχουσα
ξεχναμε
σια
πιατο
##γνω
ξεπερασει
κληρωση
σκηνες
φλα
περιοδικα
συσκεψη
reviewed
χρειαζομαστε
βρεθουν
φτανουν
αποκτησουν
υγ
##γραφων
σχηματα
λευκη
εγκ
αντιστοιχες
υποθεσεων
καταναλωτων
κυπριακο
λογ
ιε
εξασφαλιζει
κατηγορ
par
cc
##μιν
σαρα
ορθη
ηνωμενων
##γκι
ολοκληρου
καταληψη
##χες
εμπρος
ιουν
διακοπων
φαι
ιρακ
##στρο
##art
κοινων
επιβαλλεται
φυλα
##ok
ελλειμμα
δοντια
##43
##γραφ
πλα
##ημενη
ζωνης
##ence
παναγιωτη
ρολοι
##89
##ve
##84
θερμιδες
εγκεφαλου
απασχολει
μεινετε
υποχρεωσεων
##line
τριτης
πορτο
κρινει
πεπ
προτεινε
καταστηματων
##χρονι
προσκ
##τατη
αστυνομικων
μαλ
συνθημα
ηξερε
μνημεια
παραγραφος
αγριο
##μορφω
##τουρ
κιτρινο
βεβαιο
##πλο
κουτ
##ομουν
εισφορες
##ho
ανετο
εξυπνο
##ικους
προηγουμενως
σουηδια
τεμ
προτασεων
ατ
φιλτρο
##ten
auto
νυν
αφιερωμα
forum
κερδιζει
καλαθι
ζωντανα
ξεκινημα
μητσοτακης
##42
μπεν
κιθαρα
αλευρι
##ινω
##ica
##ουρα
##πει
συμβουλευ
eu
παρεμεινε
φακο
##σκου
κρατησεις
απομακρυνση
ενεργα
κολλα
προσφατες
υφισταται
##εγ
μεγαλυτερος
καινουριο
οδηγιας
##λιας
στηριζει
ηλεκτρικης
σημαντικοτερο
##ηθ
βασιλικη
πηγαν
επιθυμειτε
##gb
πτησεις
υπογραμμισε
καρυ
παραλαβη
λιγους
στελεχος
γκε
ασχολουνται
κουζινας
##οπουλο
αυτοματη
παυλου
συμμετοχες
μοσχα
θερμοκρασιας
ανταποκριση
des
προσδοκιες
επιτυχημενη
ειπαμε
##σαρ
αφηγηση
tra
τεχνικος
##ωνεται
στρατοπεδο
john
ασθενης
συνεχισουν
χρειαζεστε
αναπληρωτης
##ara
ευρωπαικα
διαταραχη
αποψε
##δημο
##διω
mini
##ακου
βλεποντας
ποιημα
πλατος
##ire
πυλη
μειωθει
γκ
περιε
συμφωνιες
##ze
υπολοιπους
##100
σοκολατα
παναθηναικου
##γγα
αγωνιστικο
ροκ
##στρω
βιομηχανιας
##λουν
μοδας
παραγοντα
δευτερου
##θηκαμε
βασιλισσα
κουν
##au
##θυ
αρθρων
μαθητης
##ρους
##ting
εφτασαν
kg
ατομικη
λαων
##ιφ
##ιζα
ιατρικο
εδινε
πετρελαιο
##ησουμε
καλως
σταματα
υγρα
βραβεια
διοικητικης
##ιστικη
θυ
ψευδο
ορισμενοι
σχ
##οντος
βροχη
απορριμματων
ευκολια
προσφορων
οθονης
ειδαν
posted
##κωνσταντινουπολη
ροδι
αποκλει
κρε
ενισχυ
χαλι
##ρισμα
μεταβολη
συσκευης
ενθουσιασμο
στροφη
συνδεσμος
μητσοτακη
περισσοτερων
ακαδημια
συγκεκριμενου
υπερβαινει
περιορισμενη
ευθεια
κρατικη
##ki
επωνυμια
προσοντα
γεννηση
χρησιμοποιηθουν
πολωνια
πγδμ
##δακης
##ετη
τσακ
πατατες
##ησης
τραυματισμο
καταφυγιο
τραγικο
ανοικτο
##ματι
ομορφες
σημειωμα
προσαρμογη
οροφο
θεσπι
φωτογραφιας
mon
ξενα
ενδιαφερομενοι
εθνων
##βει
επιτυχη
παλαιοτερα
προβλεπονται
αρχαιας
##ash
ανεξαρτητη
##ισσα
γραφω
κλασικο
ταλεντο
##υλ
μυτη
##41
##tis
κρισιμο
συμφωνω
συλλογης
ελαφρα
λιπους
εξυπηρετει
##πατ
τσου
συνεχιση
##λαμ
βραχ
κωνσταντινουπολ
##ens
σερβι
##υλων
μουσικα
μεταβαση
##ex
επιχειρει
σπουδαια
κρισιμη
ακινητο
εβδομαδας
καταναλω
επισκεπτων
εκδρομη
πιεσεις
μαχης
χαρακτηριζει
παρκα
αναπτυξει
κυπριακη
##χωρ
##τοπι
οικισμου
##ach
κανονικο
ειδικος
ιουδα
##καλ
εκτιμησεις
θητεια
##ομενες
συμμετασχουν
πολιτειας
κενα
διαβητη
si
βρισκονταν
##στολ
1991
διαφημιση
ρυ
απογοητευ
##ντεν
πλευρο
διαδρομες
συνεπαγεται
παραθυρα
##ade
##ay
##ley
υγρασια
πλουτο
μυστηριο
προσφατο
αγορασει
αρχαιολογικο
προβολης
##od
μον
πατα
εβγαλε
σωματεια
αναπηρια
org
καλης
μειωνεται
##ver
πρωτους
στρατιωτικο
ιαπωνια
##ale
συζητησης
ασκει
##ld
##ud
σχολικης
επετειο
εδε
##63
ψυχικη
προηγουμενους
εσωτερικου
φορουμ
πλαι
te
ητοι
πολιτιστικη
αποκαταστασης
οριστικα
##τικ
ιδανικα
προσθετει
##ιωτη
δινουμε
μεταρρυθμισεις
ζεστα
αντιστασης
##ινγκ
##προσ
πετρο
##so
υψ
επιχειρηματιες
υψηλοτερο
##τεχ
κανονισμο
λει
παρεχονται
κατοχης
##πολιτ
rating
φυσιολογικο
λαικης
##παι
χιουμορ
##04
##μετα
υπουργων
time
στρατιωτικων
pu
παραγουν
instagram
χρυσης
βρηκαμε
##υρο
##tu
μετρηση
καταναλωτη
φορους
κινητοποιηση
μαζικης
##58
χρωματος
##σσε
κριμα
μετατροπη
##κιο
κερδος
ημιχρονο
ξεκαθαρα
εξακολουθουν
##ey
περνουν
επηρεαζουν
οριζοντα
βοηθειας
##γιαννης
ελβετια
δικαστηρια
αναστολη
##δυνα
λοιπα
##ιστει
ενισχυει
τσαντα
αναλυσης
παρθενο
ιερου
##ρινο
κλε
αφηνουν
ga
πετρ
χαρακτηρισε
ευχη
τροικα
##οτητας
##τσ
κουβεντα
##mos
vo
ενεργειακη
αθηναιων
πραγματοποιει
κοινοτητες
##τολογια
εξειδικευμενο
bank
ερε
##53
δεικτες
ηρεμια
game
ξανθης
ορεξη
παρανομη
##τιζει
##χρωμ
παρουσιαστηκε
διαστηματα
##αμ
κατεβα
καβαλας
ξεπερνα
ακινητα
σαββατου
##87
hellas
υποψηφιους
επιχειρημα
μικρης
sha
φρεσκα
##ωτο
παραγεται
##ακο
κανονι
##νεμ
##ικι
ψεματα
κινητα
λιγοτερα
μαθουν
εξωτερικα
δημιουργικη
κληρονομιας
##καθαρ
σταθμευσης
πονος
##54
επιχειρηματικο
νιωθω
καθηγητρια
χαμογελα
εδειξαν
διπλωμα
##ov
##zi
επισκευη
##73
##51
μυθο
διοργανωσης
σχολικων
##σπα
ενταξης
συναισθηματικη
καλοκαιριου
ποιηματα
κοσ
ποπ
τελους
επιδοση
##νιων
spa
αεριο
ζητηση
σαμ
αριθμους
τακτικα
βραχο
##ικοι
εθελοντες
υπολοιποι
##ξης
cor
σχηματισμο
##παθεια
##ωτης
ουσιαστικο
σχετικων
αδ
υποδειγμα
##07
##οφ
110
ανοικτη
σκεφτει
##ker
χρη
κοινωνιες
##γενη
##πολ
ζι
ορισμενων
αρμοδιο
κατεθεσε
χριστουγεννων
διορθω
tri
ανιχνευ
ολ
παρατηρειται
ψαρι
θρακη
επικοινωνηστε
οικοδομη
κεφαλαιων
σιγουρος
περιθωρια
προγραμματισμεν
πλατ
λετε
##βατ
σερ
μετακινηση
##ιζοντας
συσκευων
αγαθα
υποχρεωτικα
##ιγ
##υμα
κατεκτησε
ρωτα
υπολοιπη
φεβρουαριο
εαυτου
##ποιησει
χορου
καταδικασ
μετρου
αναρτηθηκε
τοσες
συγχρονως
επιχειρ
υποδοχη
καθηκον
οικου
##ja
αδελφο
κρατησε
ευχαριστο
τυπους
##ger
##ep
εκπαιδευτικα
γνωριμια
πανος
υπευθυνο
θρησκευτικη
κυκλοφορησει
εξηγησε
##ειας
ιδεολογια
αγνο
τζο
συνηθειες
μοδα
αυγης
σφαιρα
εκεινον
1989
αλβανια
προβληματισμο
κοκ
##τοπο
επιστημονικης
αμαρτια
##μιας
μαζα
αναφερθει
δευτερον
μπαντα
κινουνται
περιεκτικοτητα
##ακος
υπολογιστες
κοκκινη
αντωνη
master
βερολινο
##τηκα
##χθουν
ασε
τροποι
her
##κτι
real
αθλητικη
οδηγου
iso
εισαγγελεα
##τυπο
ευρος
επιβατες
πορειας
επαναστασης
##τση
υπαλληλος
αποτελουσε
τροπου
πρωτοβαθμιας
επενδυτες
##ιζαν
διαθεσιμες
συντα
ογκου
##λαβε
λογαριασμους
ιδιοκτητη
##ξιν
αλληλο
dna
διαλεξε
δημιουργουνται
επικρατησε
διακυβερνησης
πληρους
##γχ
φυσικες
##λακ
εκπομπες
ημερησια
σκοπευ
αγαθο
μετεπειτα
αποδεκτη
κωλο
κοκκινα
καθημερινες
music
μεταδοση
##out
γνωρισε
data
αναληψη
χειροτερα
marketing
επροκειτο
αναθεωρηση
υπευθυνοι
πιστοποιηση
ομαλη
##τσος
##θρο
δημοκρατικη
ακριβη
μεσος
νεαρη
περιεχομενα
fe
##mb
παθη
καθημερινο
ανεξαρτητως
αρεσουν
##ιδια
σεναρια
εθ
ετοιμος
αποστολος
νεαρος
οπ
samsung
##mer
##ριν
##ys
τηλεοπτικο
μηνυματων
αυτοδιοικηση
στρες
απιστευτο
del
ατυχημα
ακαδημιας
λαμψη
οριστικη
ηλεκτρικη
1986
συναντησης
μεταλλικο
μηχανισμος
##τρ
κυπριακης
εισιτηριο
εμπλοκη
σκανδαλο
##κρα
μερικους
φοβος
αυτοκρατοριας
αποδεχ
ενσωματωση
ινστιτουτου
εκλογικη
us
##φια
συγκεκριμενων
μαγ
τελειωνει
λιθο
τιθεται
φυσεως
καθορισ
πλει
βραζιλια
ανωτερο
τελευταιας
##tro
ξηρα
περιορισμο
διπλη
προτασης
##χρη
##τσης
μπρα
αλουμινιου
##az
αγγελος
αποζημιωση
λειτουργο
ομορφιας
γνωρισει
##λακι
πελατης
συνεχιζουμε
##ρακ
##ez
##ξουμε
εμπιστοσυνης
υποψηφιοτητα
γεγονοτων
##πτω
αμφιβολια
απολλων
αποκλειστικη
μαγικο
σαπ
εφεραν
ανακαλυψη
λιγκ
κατσαρολα
πετρου
εκτιμαται
##oo
μαθηση
##υδ
##ισε
κυνηγι
μαχαιρι
πνευματικα
ακυρωση
ξυ
##θεσε
##ack
ενιαια
μεταλλιο
##ενα
οργανωσεων
δικης
κλειδια
##ιχ
πληρωνει
τροπολογια
αποθηκη
θρησκευματων
ναυτικο
ανταγωνισμου
πολυτελεια
συμμαχια
εμπιστευ
συναινεση
ντροπη
τοποθετη
εφαρμοζονται
στρωματα
πρασινη
δημοσιευτηκε
##οβιτς
εκδοθει
επιδομα
city
sal
##ερο
θερμοκρασιες
##λογου
υφεση
αισιοδοξια
επιβαλλει
στελνει
φετινο
αποφασισαν
βασικων
##χθη
##82
γειτονια
στιχους
fax
καλλιεργ
εγχειρημα
##ρεμ
##ακα
best
αστικη
εμπορικου
αναθεωρ
κρινεται
οφειλουν
χρεων
αποδεικνυει
παραμυθια
##τμ
προσφυγη
ομοιο
αναγνωστες
εσωτερικης
ποιητης
street
##υνη
οπλων
ακολουθα
br
φορων
κληρονομια
φανει
γενει
σχεσης
αναγκασ
ναυτικου
πατερ
φιλοξενει
οικια
διανυκτερευση
συνδυαζει
##λεν
ψηφιακο
μπαινουν
συνορων
##λωση
εθνο
λονδινου
θεσμο
τονους
##πατη
##κλι
εθνους
fr
παραβαση
υγιεινης
κωδ
##ημα
αιθουσες
##ιση
απωλειας
γερμανικο
σκυλο
τουρισμο
σταματησε
σημειων
κτι
πετρες
καθεστωτος
διαμερισματα
##yl
βεβαιω
μασκα
τιτλους
αποδειξει
αγκυρα
##ωνονται
##διωκ
χαμηλες
βιταμινες
προσπαθωντας
ληψης
καλημερα
html
radio
εξεγερση
μεσσηνιας
##ita
μεταφορες
##den
φιλικη
μαχες
περας
δισεκατομμυρια
εκπληκτικο
δημοσιευσε
νιωθει
στενη
διαθεσιμη
στοχευει
ερωτας
##ζομενο
μιλ
au
λυκο
κοινοβουλευτικη
ριχνουμε
εμπειρο
##γκαν
εκμεταλλευσης
##ef
δανειστες
φιλοξενια
τραπεζικο
ισχυς
συμβαλλουν
καλωδιο
##nes
ποσες
μετοχες
##way
δεκτη
εκπτωσεις
καπνο
εξαγορα
πολιτιστικης
γιορτες
υφη
παραταξη
ασθενειες
##uck
διατιθενται
σπανιο
οποιουδηποτε
βολ
συζυγου
μεινουν
δηλωσης
μοναδικα
επικινδυνη
αναστασιαδη
νοσο
ευημερια
##ms
μορ
μουσικες
##ιμα
ακολουθως
κακα
καυσιμων
ri
παρομοιο
##καμ
ξεκινωντας
##σερ
##φοι
ενημερωτικο
αντιπαραθεση
##λιων
##92
eco
βορειας
##τατα
αναλογια
ηγετης
mp
υπερβολικη
φρι
##ραγματοποιηθηκαν
ηελ
πρωταθλητη
παθησεις
αγορια
θυμο
δωσω
ζευγαρια
σταματη
βγαινουν
διαφορετικων
προληψης
μπακ
##υχο
εντυπωσεις
χειλη
θεαμα
εκκλησιες
##ιμη
ρυζι
προυπολογισμος
park
##ποιουν
ταφο
σπουδασε
##υσ
μνημονιου
##ung
μισθο
##ομα
##βιβα
βαν
κανονων
δημοκρατικο
αντιθετη
##φορο
ανδρο
τελευταιος
μεσης
τεραστιες
##by
ρωτησε
αποστολου
ακουει
ορθοδοξη
κτημα
ανεπαρκεια
προσωρινα
blue
##λεα
##ουμενη
##τικους
τιμωρια
διαβαζει
μηχανημα
δικτυωσης
χριστιανοι
πιθανως
μοιαζουν
διακρισεις
αποφασι
απειλες
1985
##κυκλ
##du
πμ
εμπειριας
μαγεια
επισκεψεις
αρμοδιες
γρα
αποδειχθει
cr
αθλημα
##λακης
υποδοχης
ψηλο
link
χρησιμοποιηστε
σειρες
φυλο
παλη
καταληξει
##ide
επιτρεψει
επιφανειας
##ave
##han
νομων
##ven
ιρλανδια
παγο
αμερικανοι
γευσεις
##kin
εκφρασης
διευκολυν
##παθη
συνεχισουμε
περιφερειες
##δακη
αλλης
ημερομηνιες
δοκιμασει
αναγνωριζει
διαμονης
αδικο
str
αναθεση
αναγνωστη
απιστευτη
απολυ
##λεσ
απορριψη
φυτων
##ous
προεδρια
εξασφαλιση
##διου
καθοριζεται
απομονω
προσανατολισμο
##σθηκε
σοφ
νομικων
ανατολης
υπερβολικα
τολμη
χαιρετισμο
##ιδων
πατρας
λεγει
ελληνισμου
γνωριζε
βρισκουν
τουρκο
es
συμπεριφορες
καταθεσει
ευρωζωνη
κεντρικου
130
καινουρια
περιοδικου
υποτιθεται
γραφης
αλη
##γραφη
θηκη
id
μαζικη
τρυπα
επιλεγουν
##sc
πασης
##σος
πληθυσμος
##ρικη
ισλαμ
αναπτυξιακη
δημιουργησαν
ασφαλιση
διαφορετικους
σκεφτηκα
φαει
αστερια
αεροπλανο
συγχρονα
νικης
παρο
σχετικης
περιμενω
καταθλιψη
αυτονομια
##μην
office
εμειναν
τιμ
ψηφισμα
ασφαλιστικων
τζα
##sis
καρτας
οικογενειακη
ασφαλιστικο
##sen
##δεικνυ
πνευματικης
##νομ
ελαχιστες
##ησω
##τρου
αναπτυσσεται
σεληνη
λοιπων
##τινο
δυ
λιγοι
πρασινου
ανεξαρτησια
ιδεων
σκηνης
ερωτικη
##ιστικα
##βουλ
αγαπω
κινητρο
φασεις
μεριδα
##com
##tel
βουλευτων
αντικειμενων
εντονες
ετησιως
κανονισμος
χου
σαλτσα
λεσβου
εμφανισης
κριτικες
σελιδας
ξενους
##book
##ιαν
βασιλεια
ευαισθητο
##τλ
γεωργιας
fo
προσφερ
ρημα
συνεχης
ηπειρο
χαρτες
##ωμενος
σεβ
μεριδιο
##θεις
συνεργατης
συγκρουσεις
θλιψη
αστυνομικο
συνδε
ακολουθησουν
εκπληκτικη
##ποιηθουν
αγωνιζεται
συνεπ
καταστει
εθεσε
##κτικο
καρεκλα
##rm
κοινοτητων
φανταζ
##κλιν
sex
πολιτιστικου
##ντων
καταταξη
τεχνολογιων
αγγελ
κυριαρχο
παρτε
##ano
##ργα
##τινες
τουριστικο
στατιστικα
καστοριας
##πορ
καταλογος
διαδοση
μοντερνο
κορυφης
##unt
περιοδεια
##πουλο
γυαλια
ριζα
τυπ
δασκαλος
επιβαρυνση
υψομετρο
##μπελ
##las
university
δειγματα
συστατικο
παραβιαση
##ορθ
##ιους
πυρκαγια
χριστιανισμο
πρακτικων
##δεν
ενθαρρυν
σπυρος
ενδιαφερ
δου
μαρκ
πρε
##ωδεις
αντιδρα
1940
διοικητικη
αποκλειεται
ξεχωριζει
χρωματων
φευγει
πλανη
συνεργασιες
κληση
μοντερνα
day
##μφ
κερκυρας
κρεμ
βαλτε
εκτυπωση
αστικο
καπακι
καβαλα
sun
βαθμου
συγκεντρωσης
##χεια
χιονι
καταλληλες
δηλωνουν
##iz
##ελλη
αποθηκευσης
κατσι
απορροφηση
αυτονομη
υποβληθει
##γιαννη
##ωτα
ολυμπια
καλαματα
##ani
φορεμα
μαρτυρες
βενιζελος
ανθρωποτητα
τρικαλων
download
σκεφτομαι
χριστινα
απεικονιση
##λαμβα
σκουπιδια
##λινα
μειωσει
αγαλμα
υπογειο
##ωθηκαν
τζον
μπρι
##ling
αυξησης
ιδιωτες
απατη
ζην
gi
αναχωρηση
επιθεωρηση
ενεργειων
##μπου
εξυπηρετ
##γγι
αιτιες
160
υλοποιει
αναπτυχθει
##ισει
οριζονται
##δοχ
μεταλλα
εντα
συναντα
εκτοξευ
##ren
##τεια
##χν
χω
ακα
iii
cha
γυμνα
λια
πατριδας
εξισωση
εμφανιζει
##ειδη
εχασαν
va
ραμ
συστηματικη
ep
ντοματα
##mon
αρετη
##οντων
οφειλουμε
ευρωζωνης
αμυν
δανειο
αθανασιος
iv
εμπορια
καλεσμα
##ain
σπι
δυναμικα
ιδ
ταξιδιου
mega
αστερι
ξενοι
1970
χρειαστηκε
##πραγματοποιηθουν
φανελα
μερικη
hot
##μπορ
επενδυ
παλαια
##λικη
κυριακος
επιδειξη
πετ
##con
τιμονι
βαλε
##θετο
πολο
ιση
γαμος
high
μαλακο
τηλεοπτικη
κυτταρων
καταστασεων
προσφερεται
συγκυρια
νεκρους
ταχυτητας
χαιρε
αγγλικη
λαμβανονται
μεγεθη
##σιμα
av
##σφαιρ
παλαι
διαπραγματευ
ζηταει
##ριζε
γαλλικο
προσωρινη
φροντιδας
συμβαλει
##ιστη
γιαουρτι
χειρισμο
ευα
##παντ
κολο
##γος
τονιζοντας
διασημο
##υτα
τωι
αναπαραγωγη
επιβιωση
##oi
περικοπες
προτεινουμε
κεντρων
διαπραγματευση
love
χιο
ενεργη
##λογο
αυτοπεποιθηση
ανασταση
ακαδημαικο
##οβα
διενεργεια
ακολουθια
##νιες
ευθυ
τινα
δεξιο
αφετηρια
ρω
μεγας
##gi
##μηνο
##ns
πεθανει
ιχνη
ανησυχιες
from
ενηλικων
στιλ
απολαυση
##κολλ
digital
μπ
πληρωνουν
##ωθη
πυργο
αισθανεται
your
1960
##ονια
##ζων
μοναδικες
αφρο
##end
στουντιο
αιρε
##κρο
γαλλικα
πληρωμων
βλαχο
μειωμενη
διαμαρτυριας
υπερασπισ
μαξιμου
τουριστικη
χορωδια
ηρωα
ειδ
##υρε
φανταστικο
##lan
εγκαιρη
μαθαινει
ιταλικη
επιβεβαιωση
εδαφη
καθολικη
ρωσικη
πυ
ορισμο
προσθετοντας
διαθετουμε
λευκωσια
εγχειριδιο
grand
ti
##θησαν
μισθους
##μπαν
τηλεφωνου
κινητρα
επιχειρηματα
δοκιμη
τρω
κινας
μπαλ
υπερασπιση
αστο
##γορα
χαθει
mil
laser
υλης
πηραμε
αυστηρα
##ουλ
φθορα
εφημερι
##μετρο
αρμοδιοτητες
ετικετα
##χλ
χρησεις
##προσωπ
χτυπημα
δεσμο
public
σπηλαιο
χορ
##rt
##θηκη
επιμονη
##σματα
##λιδης
##χθηκαν
##tri
##ντζα
δημοσιογραφους
θεσμους
διαβασε
πεν
##ium
##dr
ψαχνει
μητροπολη
αντιμετωπισουν
επη
ju
δραμας
ανοχη
υφυπουργος
ελπιζουμε
αρνητικες
σιδηρο
not
##ator
επαγγελματιων
##ωματα
##πλου
παραδοσεις
τοποθετηθει
σκηνοθετη
##λθ
ανταλλακτικα
οχηματος
ab
επιμελητηριο
ακουσα
εξαγ
μειωσης
fu
##cu
ασφαλες
μουσεια
μεσαια
γυναικειο
πικ
καταφερνει
εργοδοτη
ηνωμενο
εξυπηρετησης
χρησιμοποιησε
πλεονασμα
σκακι
δεδομενη
εμπνευση
διαδρομης
φημη
πακετα
υποθεσης
ιω
ολου
οριων
καιρου
##πεν
κλειδ
λογοτεχνιας
ζωνες
προηγηθει
bmw
κοντινα
press
##ειν
βλεπε
ορου
##λογοι
εντυπωσιακα
τουριστες
διατηρουν
υπνου
οαεδ
ενδιαφερονται
δικηγορος
τριτου
προορισμος
βαζουν
θεατρικο
θεραπειες
μακιγιαζ
ιωαννου
τουρκων
οδηγησης
κειμενων
εντοπισμο
εγκληματα
##θυμη
απλων
beach
##γραφει
ολης
##ερες
##min
##δακι
εξειδικευση
σοφιας
full
διεξηχθη
σωσει
##τριες
νικητης
προγραμματισμου
ανεβει
##ουλες
αρχειου
##gar
αθλητων
θεοτοκου
προμηθευ
κυκλους
##λην
αχα
παρασκευα
ναυτιλιας
μακρα
##θεντα
ve
αναμνησεις
ζαν
##ile
αναγκαιοτητα
##τρων
##σμ
σχολιασμος
θετικες
αρχηγο
χαμενο
πουτιν
αναφερω
κατασκευασμενο
cre
παικτων
αυστρια
μαιος
##βαθμι
φωτεινη
χαρτια
προφανες
##ουσες
μοντελου
διοικητης
σερι
##τιδα
cl
τιτλου
ενοικια
φαλ
μηχανικος
κερ
ναζι
σκαφη
ενωσεις
##dia
υγιη
140
κεφαλια
αρχηγου
900
μονιμα
πορ
θελησε
ψηφιση
επαναφορα
φορολογικη
μεταφερουν
γερμανος
##κτικη
γνω
ζωδιο
##cc
προσπαθουμε
σαλατα
μωρα
φτασουν
##af
ser
συναψη
##ωδες
μεριμνα
τσεπη
##52
φοντο
σαρκα
μιχαλη
##chi
κωδικας
ζυγο
μπορεσουν
παραγοντων
υψηλοτερη
μεταρρυθμιση
σαφη
φοβου
##ika
αυτοκρατορια
smart
πενηντα
ευχες
##ada
μεσογειου
πραγματικες
διανομης
ιδιαιτερως
μεταπτυχιακο
εμαθε
##ρυθ
προνοιας
λεμονι
οικισμο
##δικες
ορισμος
διαδικτυακη
ζητωντας
εμφανισ
προσαρμοσ
αδαμ
##ιδιο
##we
##λακη
bro
φταιει
πραγματικοτητας
δευτερης
προκαλωντας
δημοσιευματα
διδακτικη
περιηγησεις
διευθυνσεις
κλιμακας
οφειλων
##03
καινοτομιας
ευχ
anti
φτωχεια
συνεχιστει
θειο
ολοκληρωσει
ρεαλ
επισημανε
##θετουμε
επαγγελματικου
εξοικονομηση
δοκιμαστε
παυ
υπογραφει
βορρα
επισκεπτης
μπορ
back
##μελ
πλησιαζει
εξαρτηση
φαρμακειο
δινονται
125
συλλογικη
ιατρο
bio
εισοδηματα
τυποι
war
1821
παραγωγων
ενοτητες
ισογειο
υγιεινη
μαστου
αστερα
πρωταγωνιστες
##τελει
km
συντελεστη
αδελφη
θεραπευτικη
προεδρικο
are
τζου
εργαλειων
νυχια
ινες
γερμανικα
αστερων
##υση
κεφαλη
##λατ
διεξαγεται
μοναδικος
πλοιων
ψηφους
αθω
νομιμη
##εργατες
ουγγαρια
τεχνογνωσια
brand
##ζης
κορεα
##περι
λαβ
μικροι
##λους
συγκροτηματος
διορθωση
ιησους
##ωτες
διευθυντρια
επισκεπτη
##ning
συνταξης
τετ
προσπαθησει
αποχρωση
ποι
festival
παντες
center
πηγαμε
κυριαρχη
φιλμ
κακου
μεθοδοι
ανεργων
τουρκικης
ξεκαθαρο
παλατι
##υρ
καθοριζει
φυλακ
καρε
πτηση
εναλλακτικες
##ρτ
ανωτερη
εργατικου
tu
διακοσμη
hu
αγροτικο
επαγγελματικων
##κελ
πιανο
αγροτικη
περηφαν
νικησε
μητρωο
##pro
##θεα
##τσια
##fo
φτωχο
απογραφη
ταχ
##γυ
ελλας
φαινοταν
κλασικη
ποιητη
επιμελητηριου
εκτοτε
##ction
ολον
##ρινα
ετ
χιτλερ
##ore
ταυτα
##iki
φαρ
θεοδωρος
νεολαιας
##λπ
υπεγραψε
πτυχες
ελιτ
προστιμο
εννοω
##εφ
φτασαμε
εξελιξης
σημειωσεις
οργανωμενη
γλυκια
λοιπες
χαρακτηριστικη
αναφερουμε
ναος
αργο
##τητων
##rd
ακινητου
μυρι
αληθειας
δουλε
επανε
##ρεσ
μπυρα
##πολης
ξημερωματα
##the
##κυρ
παρακολουθουν
προχωρα
αρση
χρυσου
ουρανου
ταινιων
επιδιωκει
δημιουργικο
δεχθηκε
γεια
συνεργαζεται
im
χιλια
αγνοια
δουλευουν
παραμεινουν
υδατων
ζωγραφικης
αυτια
βαγγελης
εισαγωγης
τρομο
φρου
εγραφε
συνεχεις
##πολεως
θεωρηθει
##μνη
εφοδια
λουκα
αλλως
βαθμος
συμβουλοι
δεχτηκε
συνεδριασης
##nt
προσδιορισ
der
##ria
διδυμο
μπηκαν
οδηγησουν
συνελευσης
περιβαλλοντικης
πηγων
ακουω
μεταγραφη
υπογραψει
ακτινοβολια
μαρι
μαγνητ
θησαυρο
##φυσι
επικυρω
##φαρ
αμερικανικης
φασ
green
φον
επιτροπες
οποιασδηποτε
πεισει
απαλλαγη
εφορια
ιωαννα
ελπιδες
εγγραφες
αναστ
βαφ
κοτ
νουμερο
συγκεκριμενης
καμμενος
μαρτιν
αναβαθμισ
##βολη
τροχο
over
χαρακτηρισ
ακμη
παντο
χειροτερη
διαγραμμα
καμμια
pri
μπορεσε
σασ
ευαισθητοποιηση
αποχρωσεις
##ρακη
##tz
ιδιων
αρχειων
εξοδος
##μμα
κυματα
αποδιδει
παρακολουθησει
##νικων
πιστοποιησης
εντασης
πληρωσουν
van
μανου
eurogroup
δουκα
350
ιδιωτικων
καραμανλη
γενιες
δεχθει
συστηματικα
##ιζω
κατευθυν
μηχανισμου
λεωφορο
πιασει
##aki
##λιγ
##λογικων
βιβλιοθηκης
κτηριο
κωνσταντινο
##κεν
##μαλ
##νικ
αυξημενο
##τομη
αποφυγετε
συμβολα
επαγγελματικες
συνηθεια
συνοδος
##ere
##fe
##ελλα
συχνο
σκηνοθετης
##my
αστικης
περιορισμενο
θαρρος
βλαβες
ελευθερων
μοι
ec
οφειλες
ριξει
##αζ
##εας
σαμου
ηχος
##θεσι
δοκιμες
εντουτοις
κυβερνητικη
##ace
##τερος
##κρατη
##τιμ
κτη
##ric
μελλοντικη
μαρξ
ινα
επιστημες
περιγραφεται
διαρκη
κιλο
ποντο
μαρτυρια
λογικα
καλησπερα
χαρακτηρας
εφαρμοστει
##lar
τρελο
##αρο
διατηρησει
συμπαρασταση
πιπερι
απλες
στιγμα
##σχολ
χθεσινη
απολαυστε
ρυθμισης
αφιερωμενο
##ποιημενη
μονοπατια
δεχτει
καταλυμα
κρατουν
σμυρνης
ξεκινησουν
τελευταιους
κυριας
προωθει
διακηρυξη
εμπορικα
##ath
παρεις
##ωρα
σχεδιαση
προετοιμασιας
##ητες
μακροχρονια
##γμενο
κινητοποιησεις
ληφθει
γιορ
##ae
θεωριες
αρνηθηκε
στεγη
ντοναλντ
##λετ
γυρισει
##στρι
αγγλιας
αγιοι
ηγετη
απομακρυν
μητροπολιτη
##ποιησε
dia
φωτισ
μισος
αμεσης
διαφανεια
##μουν
##γκερ
οικειο
κρατησης
πιν
##καστρο
υμνο
δεσμευσεις
βεροιας
βγουν
διευρυνση
απιστευτα
##ραστηριοποιειται
##λακια
αρχαιων
καρπους
χιλιομετρων
συλλογικο
##ras
##ζια
##ετες
1988
##υσα
νικ
ki
αρωματα
ισχυρες
καταγγελιες
##σελ
house
##τηρη
ζυμη
κουκου
αντικειμενου
δημοτικα
##νεις
φορτιο
νοοτροπια
εννοειται
προκαλεσουν
δυναμει
ησυχο
##τηριων
ηλικιες
πλαγια
καταστροφης
ξενες
πληρωμα
##ρακης
προειδοποιηση
προστατευεται
##gu
εκτιμα
ασημι
πλουτου
##ern
κρατικου
πεναλτι
ψυχολογικη
τραγουδιου
##στια
καταπληκτικο
τροχια
πυργου
εργαστηριου
μαλα
δισκος
δημιουργικοτητα
περιστερι
πληροφορηση
αυστηρο
##μικο
κοινες
γραφουν
φιλοξενιας
εκδοθηκε
port
##lu
ποστ
ενοικιαση
##ik
ακριβο
λιαν
##μαρα
πεφτουν
##αιρ
τηλεορασης
διεκδικηση
καταρτι
ανακοινωθηκε
##ida
χαιρομαι
ομωνυμο
αναγνωσ
απαξ
ουκρανια
περιηγηση
##ιτες
συγχρονου
θεσμων
εργατικη
πειραμα
ιδιωτικα
light
##ρρε
##oy
γραφικο
##αθ
θεατες
##περα
επηρεασει
μπαταριες
ανεβηκε
συναδελφο
γραμματειας
αγροτων
ασιας
προσπαθειας
φαναρι
βενιζελου
βασιλικο
δωματιου
χτες
##τιζεται
εβλεπε
διαστασεων
νικολ
##ευση
##fi
χρηματος
θυρα
επαφης
##φρον
καλλιτεχνικη
##und
βελγιο
##ιστικο
smartphone
πηγαινουν
διαπιστωσει
test
διαταξης
βουρ
εισφορων
οικογενειων
##av
εγκληματικη
δακρυ
χρησιμοποιηθηκε
εικονων
επιτυχιας
##ιωση
μεγαλωνει
παιχνιδιων
##ορα
κρυβει
##στατη
τουρκικα
er
##μους
tr
πληθωρα
πυρα
##ιστης
προθεσμιας
τσιμπ
##πας
ηξερα
νοτιου
ποιους
ιωαννινα
ιδιαιτερες
##men
υπολοιπων
σκοτεινο
##γιε
χορος
αρνειται
##ουζ
##τρικη
ανθρωπινες
καταλαβουν
αλεξανδρα
χαλκιδικης
ξανθη
ληξης
δευτερας
##δοτη
##sta
βοηθησουμε
κατευθυνσεις
##υργια
πραγματοποι
θανασης
σκαλα
ωμο
προηγουμενης
αναγεννηση
νικητες
##ub
χαρακτηρισμο
συμβουλη
φιλτρα
γατα
##ug
##ena
ανταγωνισμο
συναντησε
##υτο
##ary
γευματα
περιοριζεται
κουπονι
##ail
κινηματογραφο
ελενα
##ted
ανακατευουμε
εσω
εξυπηρετικο
πεδιου
μεταφερθηκε
##lis
εκπαιδευτικης
μαθουμε
βιογραφικο
χρε
##φανη
1987
αγωνιστηκε
γνησιο
κιλκις
φιλοσοφιας
νομιμα
καθισμα
επιλογων
παρουσιας
manager
bra
καταστροφες
διαβα
##κορ
##τυπω
##μικη
προστατη
σταθμων
##υλη
ποντι
##ham
ανακουφιση
##μελη
ενημερω
αρχιτεκτονικης
##lon
καμερες
##σταλ
##φιλ
af
##αντα
##ιδο
περιορισμους
αθ
ζωγραφικη
χαρτης
νομικου
παραλαβης
αποδειξεις
##ora
αφησαν
στεγνω
οικοπεδο
βομβα
ασχημα
ομοιω
ελαφρως
σωματειων
χρ
εξαιρετικες
##ρρη
κρυ
αναπληρωτη
metal
μπορεσουμε
ζητουμενο
αποφυγει
εγγυ
ke
ποιοτικη
##στικης
παγου
ορχηστρα
αυξησει
αιωνια
διευκολυνση
μπαμπα
εκπροσωπου
ηπια
ποταμο
##λτ
παρουσιαστει
λεγ
ταξιδιωτικ
αστα
##ολη
επιθεσης
συμβουλων
συναυλιες
παχυσαρκια
val
μεθοδολογια
##of
##σμενες
γνωσεων
il
##βολι
##ματο
##tal
αιγιδα
τεταρτης
πρακτικης
φυσιολογικη
καταχωρηση
οπτικο
##ποιημενο
συστη
sports
χημικων
##τικοι
τυπικα
δημοσιευθηκε
γερμανικης
μουσικων
μπλογκ
μαρκετ
##δικων
προηγουμενων
δημοφιλη
συνδεει
hol
αισθητικης
καναπε
ανακαμψη
ξυλου
##μηνη
διεξαγωγης
μπουκ
τεχνες
παροντες
βασιζονται
συντελεστες
ακουσε
νεολαια
ενασχοληση
γηα
περιφημο
σκ
ανεπιφυλακτα
γυρισε
φωτ
ψυχικης
##500
απογοητευση
αρκετους
ευρωπαιοι
set
μειωσεις
##στηρι
συνη
##ama
σχεδιασμενο
##bs
##ναμε
διασκεψη
##ding
##βολα
εξη
##συνη
γιατρους
##ινας
δισκου
##λντ
ρολου
res
προσβολη
##ειτε
ανηκε
##ise
λαμπρο
γιαννα
##all
προθεσεις
μαρκετινγκ
τεν
βαλκανια
σαντορινη
ιστορικης
##ake
##δρο
##ψουμε
ιδρυσε
##φωνο
φροντιζει
μακεδονικο
φερνουν
καταλαβε
εφαρμοζει
απασχολουν
##cl
τοποθετειται
##λαγ
περιμενα
εποπτεια
##λεκ
γουστα
λεπτων
##nc
σκοπιων
αφη
προηγουμενου
προελευση
1920
κυριαρχει
καζινο
τελε
κομισιον
##ουρ
απευθυνονται
υπουργικη
αφροδιτη
φωτισμου
επισημαινεται
εντασσεται
pat
περιβαλλοντικη
##ριδης
##ρχο
πληροφοριας
##φει
βαμβακι
νομικης
αγροτικων
χαρτο
1944
ευχαριστησω
cap
βιωσιμη
εμπορικων
1981
ορθοδοξου
καλλιτεχνη
##ola
πουλια
##ever
πραξικοπημα
ελκ
##ls
ενοχο
απθ
##λαχ
κερι
φωτεινο
συγγραφη
επιτυγχανεται
τεχνο
κλιση
βασιλευ
εξτρα
στομαχι
σταθηκε
pop
##νικου
##ατο
σημανση
συμφωνο
##ερη
επεμβασεις
μαγειρευ
πλημμυρ
περιπατο
εκπροσωπο
αστυνομικη
υψηλων
##ρεια
δολαριων
καταλαβαινω
κοσμηματα
ψυχες
μετρησεις
μετατραπει
ανταγωνιστικο
περιπτωσεων
σχεδιαστει
##ess
##κον
ge
στρατηγικες
σκαι
πληροφορησης
εκατομμυριο
κυβερνησεως
φωτογραφικο
τετραγωνο
πονου
διαταγμα
κομβο
βαρη
ενθουσιασ
gl
##ελε
##οποιηση
εμπορικες
υποβαλλονται
##λινο
παιρνουμε
πρωτοπορο
αμαξι
κοπη
ακτες
δεχονται
διατα
συγχυση
##00
ευρυτερο
##ργου
##ουλη
οινο
συνθετη
πλυντηριο
υορκης
εμφυλιο
αυξανονται
επωνυμο
##συμ
δοχειο
πολυτεχνειου
##δελφ
δανια
μαρκα
ατζεντα
κυκλωμα
##λιπ
παραδεχ
##ζυ
##ισουν
##λιθ
##θετει
συμβουλο
champions
ru
ανεβαινει
ενοπλων
##let
νοτιας
##sion
αρμονια
ανεκ
δανεισ
νυχτες
##ειου
αυγο
εξαγωγη
##βλα
ανταποκρινεται
ανταλλαγμα
##μετρη
δωρεα
che
##αρε
διευρυν
μιγμα
βροχες
υιο
##μμενο
ανακαλυψε
μπορεσετε
προτιμησεις
##ριζω
##ηκαν
κρεμμυδι
##λογικα
σερβια
πεποιθηση
##εθ
παραλληλη
αριθμοι
king
μισθων
χημικα
μηχανηματων
γραψω
χαμηλης
big
αμοιβη
φλωρινας
food
αλλαγων
επικοινωνιων
##νευ
καταθεσεις
πανου
χερ
σκουρο
σταδιακη
εκφραζουν
##ζομαι
ολοκληρωνεται
σκυλου
βιολογικο
##ics
##μπεργκ
χωρητικοτητα
βιβλιογραφια
mu
μοντ
μπρου
χαμηλοτερο
ραδιοφωνικο
στηριξει
##τακι
αγαπουν
εξελισσεται
dvd
υπολογισμο
##zo
##βεν
##ωτικη
στερεας
εταιριων
tablet
ξυλινο
θερμοτητας
ταξινομηση
βαλουμε
παραμονης
εγκληματος
management
γραπτη
περιφερειαρχης
##ποιηθηκε
κρυβεται
λεωφορεια
λεγομενο
##λλο
τυπικη
##sp
λαικου
εσωτερικες
##παγ
σκλαβ
##γλυ
ανατολικο
blogspot
##are
##γραφου
##πιε
οπαδους
εμποδιο
##λογικο
ακολουθο
##δακια
αναδιαρθρωση
ζουσε
υποβαθρο
παρασυρ
φορος
τυπικο
καλων
##ιδε
##ρρι
προτιμηση
αχαιας
##πης
σοβαροτητα
επικινδυνα
##ζομαστε
φωτογραφιων
δομ
καρδιτσας
συνομιλιες
χαλαρωση
φαγητου
εστι
συνεληφθησαν
χολ
σκορδο
προμηθευτες
χασουν
χτυπα
##sk
περιπτερο
επαναστατικη
##lia
##κοπη
τεχνικου
παλιες
υπουργοι
ξεχασ
##ωσεων
δημοσιογραφοι
στεφανος
τοση
health
διαβαζω
##ρακια
τρεχουν
##δικ
οτου
1950
διαλογος
μεταβιβαση
σημειωνοντας
##καλε
σχολικου
επιβιωσης
δουλο
παρεχουμε
φανερο
απαιτησεων
photo
λαμβανεται
βαλουν
##διαπραγματευσεων
αναφερομενος
γενεθλια
αραβια
στιχοι
αρμοδιοτητα
##gg
περιφερειακου
ελλειψης
ερευνητικη
εγκυμοσυνη
στρατιωτικες
εοκ
μαθηματικων
αελ
πανεμορφο
πλειονοτητα
παπαδοπουλου
κεφ
διαβουλευση
ευθυνεται
εφικτο
##πυρ
men
##σσει
ρουμανια
νεκροι
σεπτεμβρη
school
ακραια
υπηρετουν
ενισχυσει
παιξουν
δακρυα
ιστορικες
μετεφερε
τρενο
ηρακλη
##ji
επιφερει
##καθ
αμφισβητηση
λειτουργικη
μηχανισμους
ασφαλης
hand
σκοπιανο
θηλυκο
##πυροβολ
αιμο
ησλ
##αλα
εκπροσωπων
##ιμια
δαση
εξαρτηματα
##πεδ
βαπτισης
ετοιμαζεται
##μμενη
πυκνοτητα
οπαπ
ενυδατωση
μεταβολες
##θεντων
κυβερνησεων
105
αφορουσε
συνοδεια
διαγωνι
τσιγαρο
##des
##tas
δαν
πρι
αδειων
θεσμικο
ασκουν
##λογιες
ρηξη
καλλιτεχνης
σκαρ
ed
αρμα
καταπληκτικη
εκμαθηση
##στρια
##υτη
σηματα
γνωμονα
σινεμα
ελευθεροι
##στικου
τρωει
φραγκ
εκπονηση
εθνικος
προσωπικης
λοφο
παπ
φορολογικο
σημαντικος
τεντ
επιστημονικες
δρομολογια
συγχρονων
εξωτερικης
εκπομπης
νησων
gar
##φορη
πρωτιστως
παλε
##ich
γεωργιο
λειτουργικα
##ραχ
ιδιωτικες
trans
φασης
bit
##κολλησ
διευκρινισ
1983
διοικητικων
σχολων
νιωθεις
καθημερινοτητας
επικρατεια
συνεχιζονται
εκπαιδευτικες
επιθυμιες
αναλυσεις
1982
##φης
σκελετο
ζο
λεγομενη
υγρων
προσθεστε
κουρεμα
##200
αριστα
δρομοι
##ατα
##ινουμε
μητροπολεως
##φες
##ical
ιδρυματων
##σφαλ
##διδονται
εντυπωσιασ
ανθη
αγνωστη
διαθεσης
βδομαδα
αρχισουν
στρωμα
##κλε
##τιου
##ωμενες
ρυθμος
ευελιξια
##port
##σταση
πρωταθληματα
##κτικα
κρατικων
πανικο
##ρικ
σιγουροι
αφε
ευρεως
##ru
wh
κυβερνητικο
##γραφος
βασιλειος
δελ
χανουν
##hr
αβα
σκυλια
##σιμη
βελτιω
single
μετρησης
δραστηριοποιουν
ακολουθες
πωλειται
κουλ
##ληπ
διαλυμα
μερει
φυγουν
ιστοτοπου
εγχωρια
##cher
μεγαλωσε
##ωσουμε
δελτια
συνιστω
αναγραφεται
τηλεφωνικη
τουρκος
χρηστου
κρατωντας
περιληψη
ανταμ
δοθουν
##ληψι
αργυρο
αστειο
παντος
##πνι
αντιπροσωπευει
παγκοσμιοποιηση
φουρ
θεωριας
##ισμενο
θεωρητικα
λεγαμε
ωκεανο
επηρεασ
χτισ
##ρθ
εκκαθαριση
ζου
ξενη
σφραγιδα
ιμ
σακ
διαμορφωνεται
γηπεδα
νεαρο
ακουμε
##αντ
ξεχασει
εξετασης
κλειστα
##aw
##tin
απορια
κριθει
##ικως
τοιχους
##λιδα
λεξεων
πλω
επιθετικο
εγκυμοσυνης
επιτοκιο
##ρωτη
ηλιακο
##board
δεξιοτητων
κινδυνευει
εκτακτης
μαυρ
αλογο
εξοδων
λαμπ
καρκινος
##φυλλ
προδοσια
μωρου
##χειρηματικοτητας
πλασμα
1984
επεσημανε
κατασκευαστες
παροδο
##wa
συντονισμο
σταρ
##uc
μπαν
καταρ
δηλωσεων
ev
##press
καθοριζονται
βιομηχανικη
##τροφι
παραδοσιακες
αγωνιστει
ανδρικο
αγρινιου
##κατε
διαλειμμα
##γεννη
##gh
λαους
pl
εντοπι
εξελ
ενδιαφερεται
διασωσης
αναγνωρισης
##ons
αισθανονται
make
γελιο
συμπληρωσε
προτεινεται
αντιμετωπ
server
ταξιδευει
εκτακτη
κρισεις
δεξαμενη
νησιων
μπασ
πνπ
europa
##αρει
ναυτιλια
πηδ
επαρχιας
διαπιστωθηκε
εκατοστα
φετα
##αργυρ
##ιεται
##χτει
παρανομα
εθελοντικη
##πτο
σφραγι
##βουμε
##tre
συντροφου
αδιεξοδο
χορτα
καταβολης
δικαιουται
εργατικης
καταταξης
##ετια
δημιουργησετε
##λλ
φακελου
σμυρνη
##vers
φορολογιας
οπαδοι
##ουσας
καθοδηγ
##απαντηση
αναστα
προσληψεις
##νοια
χρηστο
##τιζουν
συνδεσμοι
ηρωας
##rc
system
οφειλονται
##μισθ
multi
διδασκει
λαμια
καθη
εικονο
οργανωσ
##στιν
φυλης
κυπριο
water
plan
διακυβερνηση
τερματισμο
εχθρο
συνεργατων
μηλο
συνεχ
##val
διοικητη
εχθρους
ανδρικα
##κρου
αφησουμε
συγγνωμη
προπαγανδα
##στουμε
τζε
διευκολυνει
ενεργειακης
παραταξης
##πειρ
προβαδισμα
δασκαλα
ερμη
##nos
υγειονομικη
ηλιακη
διαδικτυακο
κυρωσεις
##χτηκε
εκλογικο
κατηγοριων
πξν
box
##μας
##ico
επιφανειες
sea
οργανωμενο
ηλεκτρικα
τουριστικων
καθιστουν
times
συμβαν
πολων
πεμπτης
##ck
ασφαλισ
βαλω
studio
κιβωτιο
##ψια
##ταξε
μαρτυριες
τζαμι
συμβουλου
##berg
πρωκτικο
οκ
φανερω
μοναχου
##ins
ειδοποιηση
δραματικη
##βιν
##μμενα
ηγεσιας
mc
αντιληφθει
μολυν
##ox
ζωγραφου
καλιφορνια
κλειστε
sm
στηριζουν
τρωνε
##τρη
θελοντας
αξιοπιστο
##κλ
δημιουργιες
επισκεφθηκε
συναδελφων
εκπροσωπει
ζαρ
προτεραιοτητας
φιλοξενη
##μερι
##φορων
ελεγχους
market
χαμο
##τροφο
προκαλειται
οσκαρ
κορμι
συνεισφορα
διαφερει
##υρου
γραφτηκε
προεκλογικη
πανελληνια
##tos
ξερο
ρομποτ
νεκρων
επιτυχει
συγκριτικα
βελτιωσης
παρακολουθησουν
οκτα
στρατηγικο
εκδρομες
σεφ
γερμανους
καθυστερησεις
οδηγοι
##ιστηκε
περιβαλλοντικων
δομων
διεξοδο
καλοι
κοψ
##ord
θρησκευτικο
εγγραφου
διασκεδασ
ενεργειακο
θυματων
##ato
παρεχοντα
ασθενους
βουλ
θερμη
team
καπνισμα
επισκεφθει
προτεραιοτητες
##πουλα
##ουρη
τσαντες
##γεια
κινηθει
##fer
συλλαλητηριο
καλλιτεχνικο
αναλυτικη
ερχομενη
##ala
ραγ
##λειφ
παραξενο
##βολ
ζυμ
παμ
##ame
σπασει
καθολικο
απολαμβανουν
##ρμ
360
καρπο
##ισκο
προνομια
ορμη
##ias
τρυπ
##ev
γυμνο
μπελ
υπεστη
##θετουν
os
##μικα
ποιοτικα
βρετανικη
αναστασια
δημιουργος
travel
δικαιη
αποστολες
αναμονη
παντρευ
κομη
##σμενος
επιστημονων
πρωτοκολλο
##χοι
κοσμα
σταλιν
τοπικου
μπουκαλι
σταματησουν
προυποθετει
εντυπα
χρονοδιαγραμμα
μισα
##σμενοι
##ρικων
προδιαγραφων
##αγγε
##ζερ
τεθηκε
##λειο
ιβαν
##νικης
ησαν
υπερβαση
##gn
φωτισμο
συνεντευξεις
##φορτ
##je
##gan
γηπεδου
τριτους
γωνιες
##εισ
je
χρηματικο
γεροντ
ολοκληρωσε
dj
διαφθορας
δαπανης
πανελληνιου
αμερικανικου
##χρεω
πακισταν
δρακο
κεικ
προαγωγη
αλγοριθμ
κλοπη
συγκινηση
para
προγραμματισμο
##αγωγη
αγγελικη
διαχειρισ
αλογα
προσκηνιο
αθλητισμο
εξαφανιση
ελαια
προωθησης
πατριαρχης
αντιληψεις
κατακτησει
αδελφος
page
γαλλος
αυξηθηκε
προχωρησουν
διοργανω
##ιδι
##μαντ
υποβαλει
ενταχθει
##υει
κορμο
end
βενετια
ομπαμα
##γενεις
χτυπησε
γενοκτονια
##λιες
αναλογως
κατασκευαστ
##σσι
γινουμε
μεγαλειο
κλεισ
περιμενετε
νομοι
πολιτιστικων
μηχανης
reg
mobile
επαιζε
γραφικα
##ομενου
παροχο
εξαγωγες
##γιω
καθοριστικο
διαφημισεις
νοστιμο
συλλογους
κυριαρχιας
ασπα
##ωμενοι
κινηματογραφικη
μιλανε
κεντρικα
παραγγελιες
επεξεργαστη
αντικτυπο
χρησιμες
φροντισε
##φευ
βρισκουμε
εισιτηριων
προσκαλει
εκα
εκεινης
αυξησεις
συλλογες
φαντασιας
φτερα
##χθηκε
ηχους
τριγωνο
προσπαθω
διαβασετε
ενοχ
καινοτομο
##τζου
πιανει
αξ
εξεταζει
##χνι
αντιπαλους
καθαρισμος
ρητα
##λυση
ποδοσφαιρικη
##ima
χαλυβα
##υδα
ζητησαν
##ικοτητα
##γραφιες
κερα
πατερες
μορφων
μετακινησεις
##γκελ
οικουμενικο
μηνας
στερεα
προσφυγικο
στοχου
μοσχο
καθαριοτητας
αποψεων
απολαμβανει
##χαι
εκφρασει
συντριπτικη
μαγαζια
τυπων
κατοχος
γνωριζοντας
##ans
dan
##χουν
αγγελου
bf
κηπου
διαδρομο
ευνο
προμηθειων
##βολο
μυθολογια
ανθρωποτητας
εκλεκτο
δημαρχειο
επαιρνε
##πρε
σταθει
κλη
σπουδαστες
εικονι
σκην
επιταχυν
επιπροσθετα
προσφερονται
κλαι
##ρινη
##bb
περιπετειες
ωριμα
ημερησιας
δημοτικες
##σμι
##νικες
gold
καθηγητων
ηλεκτρονικες
ram
πατωμα
πληρωμες
ηλεκτρικου
ποιητικη
χρωματικο
##γιας
ορμον
ενημερωνουμε
##πληκτ
κρου
γκρουπ
##οδο
##τακια
ενεργοποιησετε
παραγωγους
##σθαι
ανδρι
θεσμος
ματιων
επεσαν
##ios
κροατια
##ture
den
υιοθετηση
προσπαθησαν
αντιστοιχου
ωφελει
##tex
καλυτερους
##ata
αυτοκρατορα
κατευθειαν
τιμα
περιποιηση
##ιναν
μοσχας
##φωνα
1973
αγγιζει
αλφα
##βας
νεκρος
αλληλεπιδραση
πιστοι
παρανομο
φυλων
ολομελεια
##ene
φοβερο
ben
φιλι
εναλλακτικα
##ζομενη
##ert
λευκαδας
επαν
ριζ
εφαρμοσει
εξασφαλισ
καθορισμος
παρουσιασης
πιτσα
κοιμ
ισπανιας
κομμουνιστ
αντιδημαρχος
cla
##νομη
##ουλης
αθανασιου
pr
ψηφιακης
συνηθισμενο
##νομο
βρυ
σημαντικων
λιγοτερες
ταιριαζουν
##σπουδα
σκεφτειτε
look
τουρισμος
αναλυτικο
ερημο
πολλαπλασια
##τισμος
ταβερνα
##ya
σκεφτεται
προτεινω
ψαξ
αλμα
χαρακτηριστικων
##ρισμενο
πιθανες
μαριο
γραφειων
υπενθυμιζεται
χαριν
χριστιανικη
κυτταρο
like
εξοικονομ
ποιοτικο
σταυρω
##eo
πολλαπλων
1967
δεσπο
εβαλαν
##yn
συμπληρωσει
διορισ
συνεχομενη
1975
μυστηρια
##ζουσα
##ουρι
προτιμα
ανθεκτικο
χορηγειται
υποστηριξει
συμφωνει
νομιμοποιηση
παρομοιες
##οτ
υποσχεσεις
##ππ
αποδειχθηκε
ευρεση
επιβεβαιωσε
##jo
sk
##rin
##los
απαλο
##ουμενο
πρωτεινες
λεσχη
##ιζουμε
##ock
φυλου
ταυρο
μοναξια
αυτονοητο
ελευθερης
στεφαν
τουμπα
ρεθυμνο
βασανισ
##κατ
ανεξαρτητο
καλλιτεχνων
σιγουρη
καρδιαγγειακ
εγγυαται
εξαφανισ
ληφθουν
συμμετεχοντων
παγκοσμιος
##ult
φεγγαρι
ηλειας
##παθ
προοδου
λογαριασμων
##σαλ
##υρω
προσευχ
δεθ
ημ
μουντιαλ
φραγμα
κουκ
δικαιολογητικων
##υπολη
##λισ
##ζεο
##ιτης
τρικ
ηρακλης
διαχρονικα
μυρωδια
διαβιωσης
νοεμβριος
μαριν
ιμπεριαλιστικ
τσαρ
##ξεως
ap
##γαρ
εκτασης
κλινικης
παππου
κιν
εκσυγχρονισμο
cafe
κυματος
ψαχνουν
##σφ
γεωγραφικη
##σμενων
συντροφος
κωμωδια
αμεα
χαριζει
σαλα
εφηβος
##ωτικο
##xi
τελων
παιδικης
πιλοτο
αποκτουν
##ιερα
##ks
υποβαλλουν
οδηγους
camp
συνεργαστει
θεωρηση
##καλεσε
υποχρεουται
σημαδι
εννοει
##υκ
##δεια
υποψηφιου
λουκ
ιδου
γινετε
ευβοιας
τρικαλα
ασφαλιστικες
##τριβ
απομονωση
συγκεντρωσεις
##σπερ
λεπτη
υδρευσης
##φιλο
συναντησει
πρεβεζας
επιβαρυν
ελι
μεξικο
εγκαταλειψει
διαγνωσ
αποκλειστικο
var
##στηριο
απειλει
πολυτιμη
χαιρετι
##ντος
φιλα
fl
event
##σθη
δυνατοτητων
##σοφ
μαυρου
ψηφου
ρολους
ομολογια
##πονη
##μιση
ξερα
βιεννη
φημες
europe
τοξο
φωτοβολταικα
##ρωση
κατοικιες
προκυψουν
χαμηλου
##κηρυξ
λατινικη
παγωτο
χρεοκοπια
τελευταιου
προσθετα
##ari
βασικους
εορτασμο
##ble
καλωδια
sony
εκπομπων
αποκλεισμο
θρονο
##ane
αρσενικο
σωρο
συμφ
εκτελεστ
κεφι
πιτ
ανωνυμη
γενικων
παραδο
υπονομευ
##στασια
διαπιστωση
δοκιμασια
παιδων
##γγο
##χαρ
hp
εφηβων
παρεμβασης
προσχημα
εοπυυ
μνημονιων
δασκαλο
συριας
τριπολης
ανεμο
χαλα
##μπουρ
φαγητα
κος
εκπαιδευτικος
τεκνο
εκκινηση
επισκεφτειτε
αφρικης
κινητων
if
κλαδος
φοβουνται
συγκρατ
σταθεροτητας
θυμαστε
ωραριο
τροποποιηθηκε
υποδομης
διπλασια
κοντινο
καταλυματα
παιρνοντας
συνθηκης
πιστεως
εμαθα
διοικητικα
περιγραφονται
αρε
αιτωλοακαρνανια
αυξημενες
ενορια
ογκος
πλησιον
##gue
θυμαται
συμπληρωνει
εκτελει
επιστρεψουν
καριερας
##λφ
bur
κοιμα
αντιπροσωπεια
ελαστικο
θεωρητικο
διαφθορα
μεθοδων
##δρομο
εκδηλω
αναλογες
##ρνι
κυβ
##μιου
αληθινα
##χωριου
μεταλλο
γραμμων
mas
αξιωμα
υπηρετει
##ρμο
επιβεβαιωνει
δημιουργησουμε
##κινδυνευ
μιλησουμε
αποφασισα
ιστοσελιδων
θαυματα
οριζοντια
χαλια
τραγουδιστρια
φαρμα
βυζαντινο
##ves
φυλη
αδιαφορια
αοζ
πλη
δικογραφια
επιμενει
λογοτυπο
νυχτας
σαπουνι
χημικη
##σμε
ελαφρια
αισθητη
that
υπακου
δημιουργηθηκαν
ωσπου
μαθαινουν
##its
μαραθωνιο
βουλγαρ
χρονους
##ζαρ
##mes
1941
ευλογια
τροχαιο
##αλη
φυγη
ταξεως
προλαβα
κερδ
##μιρ
φορολογικων
αντιλαμβανεται
βαγγελη
ιερουσαλημ
ανεβασε
εγκυκλιο
μιμη
οικεια
φωκ
##ετους
##nis
ιδιωτικης
ομολογων
αγαπα
φαντασ
har
συντροφια
##ρεν
ανιχνευση
κρασιου
εορτη
φορητο
γεννηθει
συγκαταθεση
##αντι
καθενος
ελληνιδα
book
##low
σχεδιαζει
τεχνητη
ενδυναμωση
οικον
λαμπα
##αρχ
##ρχι
εταιρους
περιφερειακων
κινεζικη
προσαρμογης
καλυψουν
ασυλο
##cent
αδα
παραχωρησε
πολεως
##χον
1979
ασφαλιστικη
european
μκο
##cy
πουλι
μετρησ
αεροποριας
αισθησεις
προορισμους
καθρεφτη
συνοδευει
καταλαβαινει
αντοχης
##cle
ασφαλιστικα
μαζας
θεμελια
ροης
στρω
παραδεισο
δαχτυλα
μπατ
νημα
101
php
αποδεκτο
ρουχων
βοηθος
βγαλουν
##len
γραμμενο
συνανταμε
##ψο
album
παροχων
##λλει
##ιτσα
τραγικη
αεροσκαφη
##ελο
##ξιο
καθισματα
sim
##ολο
##τσες
συνεχιζοντας
##γλ
##αρτη
οικισμος
style
σημερινης
προξεν
ana
λαικων
πιστευετε
σαβ
αντιπροσωπευτικ
##ημ
##lam
##nic
δωστε
ομιλιες
ευλογη
##ιακο
νιωσει
αποστασεις
##iv
αχρηστ
φοιτητης
##eb
220
προφητ
βουτ
εγκριθηκε
φιλοσοφικη
τριτος
αφθονο
εντερου
bet
παχυ
ικανοτητας
αποκλεισμου
νομοθετικη
ανοιγουν
##βρε
χρειαζοταν
εκτασεις
φλιτζανι
νορβηγια
παρατα
δημοφιλες
ιστολογιο
φτωχειας
ναρκωτικα
τρομοκρατια
γραμμαρια
συσσωρευ
εποχων
εθνη
##sco
ταχυτητες
ιατρειο
αντλια
##yp
κυριοτερο
δυναμ
σχολικες
οργανισμοι
μυθος
εκτιμω
ισπανικη
μαριας
115
body
μετατρεπεται
πατο
φρε
##δικου
##γκας
ανεμοι
διευθυνων
βυζαντινη
φοβαται
##σταν
μετραει
επιτροπος
κυριακου
λυσης
may
φορολογια
ευαγγελος
micro
##ματικη
παραγονται
κοριτσακι
συγκροτη
##ρεφ
##bl
επιτυχημενο
οντας
παρουσιασαν
##σματος
λιτοτητας
##αρντ
βαζοντας
βακτηρια
σοφο
##χρησιμοποιησουμε
εμμανουηλ
##φτ
συρου
μετοχη
##γραφε
κηπος
δαφνη
##ple
αναδοχου
ποινικη
τουρκικες
##ζαμε
βεβαιοτητα
ευγενικο
φυλε
δημοσιογραφια
χαος
next
εμποδιζει
κλαδους
αθε
εθελοντων
γαλλικης
προπονητες
πλαστικη
ιστορικων
αγγεια
οπερα
γιγα
πολυτεχνειο
καταδικη
ουδεποτε
αυθεντικο
μπλα
##χρονης
δωσετε
##air
νοσος
αλβανιας
##λλου
##ωδους
αρχισα
κοστιζει
εκκληση
οδων
ευρωπαιους
ενιαιου
βιλα
ant
die
γενικοτερη
φτασετε
λειτουργικοτητα
εξηγηση
βουνου
επικοινωνησετε
ανακαινιση
ανεργοι
εγκαιρα
εξελιχθει
##λισμο
δεσποινα
διακινηση
αναπτυσσονται
αποδεικνυουν
##pu
εφθασε
τιμημα
##ινος
##κετ
170
σαουδικη
ανετη
ερωτικο
συστατικων
εληξε
ακριβα
μαλακα
μολυνση
μισ
παραστασης
νηστεια
website
πλασ
τακτικο
προχειρο
μυλο
σελιδων
dis
ψηφισαν
ελευθερου
αγαπητοι
ltd
##tm
φθασει
##car
γλωσσων
tagged
καταληξη
ευχαριστα
μειωμενο
διαμαχη
450
##vis
extra
επιασε
προσανατολισμου
οργανωτικη
under
roll
αναπτυχθηκε
μεταφερθει
##rk
γερμανο
φθα
ρωτησα
κινητικοτητα
ανεργους
1977
ποροι
##pl
αιγυπτου
games
##ριχ
##λανδ
χριστιανων
##eng
ψιλο
κυκλαδων
κυβερνη
##γονα
δυνητικ
##ολ
αποσπασματα
παιζοντας
φρουτων
##kos
##ραντ
στασεις
ci
ψυχολογιας
##διδασκ
##king
καθηκοντων
τραυματιες
πλαστικα
##ταξη
##φασισ
διακριτ
λειπουν
##uk
ιατρικες
φαρμακευτικη
ενδεικτικο
απολογισμο
νους
νιωθουν
##ial
##τηρ
βγηκαν
αιτηματος
αθλητικες
σφαλμα
ιστορικος
##ρισμο
πελοποννησο
γεννησης
σχολιασε
##κοντα
γελοιο
συνεννοηση
νταν
σημαντικοτερα
περπατα
φοβαμαι
ριχνει
καταληγουν
μετανοια
μαγια
##ιδ
ξεφυγει
αστρα
δηα
ισχυριζεται
πεμπτο
##λαβα
ιασ
εργαστηκε
##ευει
##ωστε
αγγλο
κατεχουν
ανοικτα
πρωτοκολλου
don
104
μηνιαια
κλειστη
##ισι
ντεμπουτο
φαγ
κηδεια
ελλειψεις
##νυχτ
##φαιν
ωθηση
##ιανη
μεταναστευση
##if
##ωσω
απολυσεις
παντελονι
ταχεια
απασχολ
αγγελια
καλοκαιρινη
αγωνιστικες
λεγομενα
φω
##θαλ
##ντον
sam
κελ
##βολες
cal
τουρκοκυπρι
επιτρεπ
καστορια
ντ
πανεπιστημιων
επιθετικ
οριστικο
αμοιβαια
ηθικης
προετοιμασ
ζησουν
μαγιο
γνωστοι
store
##λεο
##χαρα
απειρο
david
##λιτσα
αρχαιοτητων
##mar
##ινιο
κινητου
γνησια
δοκ
javascript
πιστευε
##ique
επιβαλει
ητανε
τριαδα
καρο
##δρου
διαταγη
##ωσι
ολοκληρα
tele
αγαπητε
##νδ
πρεσπων
sw
κρυσταλ
εμε
##ονη
ομονοια
μαντα
αγωγο
1945
πρεσβεια
πλανα
αστεια
##sm
##την
τετοιων
ορθιο
υποψια
προτιμουν
πωλ
##ζεσαι
επιστημονικων
εργοστασια
##ρρα
##βαλλομεν
μυστικη
κοζανη
##ξου
ολγα
χρησιμοποιηση
βγαζουν
δυνα
φιλου
uni
δραστηριο
##illa
##ιστ
υποσχεται
##γεωργ
##rap
##tv
αλεξανδρο
βαρυτητα
##ομασταν
προσεγγισεις
ουρο
νομοθετη
white
καταπολεμ
αντιστοιχουν
κλιματικη
##φρ
ρυπανση
ποινικ
αυτι
ψηφοφορ
γεμιζει
πλεγμα
##ολι
##οντουσαν
φτασουμε
##τρω
##μαχο
δαχτυλιδι
προτερων
κοιλαδα
συμφωνουν
αρμοδιοτητων
αρτας
ισοπαλια
δημοι
παρτυ
συνοχη
μπαρτσελονα
##ταγωνιστικοτητας
##λανε
##iko
εργασιακη
γαλαζιο
ειλικρινα
τουριστικης
λεσβο
πολεμικη
##γαλα
##γιες
κουτσο
ενημερωτικη
καθημερινης
chi
αποτυπωμα
κυπριακου
παιχτ
εργαστηρι
οφη
ουρ
ετοιμοτητα
συμπολιτες
φιλοξεν
θεωρητικη
χειρα
σβησ
ελεγχων
νουμερα
pos
##χαλ
φτανοντας
πανελλαδικη
δηλωσαν
ποδοσφαιριστης
φιλικα
ελεγχουν
ψεμα
ζημιων
διορισμο
επαγγελματιας
πιεσ
τροποποιησεις
##θεο
παραπεμπει
προμηθειας
κρυφ
δικαιουνται
μεταχειριση
καραβι
κοινοποιηση
υστερ
αδικη
##ουμ
σολ
ευρυτερης
##μαστε
##su
πιστων
πλ
##cal
κατασκευων
##cia
##φλ
ορατο
galaxy
καιρικες
tour
εκχυλισμα
##γενης
gel
μαγκ
παιδακια
##ημενα
νηπιαγωγειο
πρω
καλυπτονται
παρελαση
tags
kai
χρω
χαθηκε
απιθανο
βραχυ
mercedes
καταλαβουμε
##τηση
φλογα
ιχ
επιδερμιδας
##lp
ενοχλει
ατομικα
γαλ
εφτα
διασπα
εξωφυλλο
κατσα
φωτογραφικη
σφυρι
πανελ
μαλλι
καλλιεργειες
απροβλεπτ
θεμελιω
θεσ
εβαλα
##κινηση
εκτιμησε
##ξηγ
εφυγαν
ανακυκλωση
ορισμενου
τζιν
χανεται
επιλεγοντας
εξυπνη
##ουνταν
θεσσαλια
##καρδι
βελτιωνει
συμπληρωματα
στατιστικη
αντα
##σκευασ
επιχειρηματικων
ερευνητικο
καταστατικο
βεβαιωθειτε
ταπεινο
παλιοτερα
προσθετο
σωματων
συνηθη
οστα
λιμνης
νησο
συνιστουν
bal
kar
λαμιας
##eu
αδυναμιες
ηρωων
παρκινγκ
συρο
ιταλικο
κανονας
##χτ
οψει
θητειας
αναδεικνυει
γερμανων
σνακ
διοργανωσεις
διαμορφωθει
απφ
ακαδημαικη
εβρου
θεματικη
ταυτοχρονη
εκφραζεται
μαδριτης
λειτουργιων
cat
αλλαξετε
ζητηθει
πρωτεινη
παναγιωτα
##βιλ
αποτελεσουν
ιου
βρισκω
##λογιο
πατριαρχη
λατρεια
αδερφο
ταξιδεψει
μηχανικη
αγορασετε
##μπαρ
ερυθρο
τεμαχια
ισχυρα
υπαγωγη
αποδεχεται
##fr
##σκευ
##γραφες
##λεμ
αντωνιου
φιλοξενο
##μεντ
##ευρωπαι
επιπεδων
##εβα
δημιο
αναπαραγωγης
##amp
αρτο
συμπεριλαμβαν
##star
αστρο
κρητικο
αθανασια
ατμο
μονες
##ριμ
ομολογα
παραδοσιακων
αναβολη
λυσει
αμερικανο
κανονισμους
μνημες
wa
περασαμε
διατυπωση
##σιον
δοθηκαν
αετο
σχετικου
λεκανη
ψυ
##χαρι
αποχωρησει
αισθηματα
##δελ
υποβαθμιση
ασεπ
επαναλαμβανομεν
θειας
ακριτ
περασετε
οδηγουσε
βοτανα
paul
ανοξειδωτο
κεφαλης
παιδικου
πετρουπολη
αστικου
αποφασιστηκε
επιστημονικου
βρασ
rem
was
προσδιορισμο
αιωνιο
τριημερο
αναλαμβανουν
προοδος
##br
σχηματος
οκτωβριος
αθλητης
τασος
##set
δουλεψει
εμφανιζουν
##λογικες
εκκρεμ
αναμενομενο
διαφοροι
περιθαλψη
ιερεις
σκυλι
ανακοινωσει
ly
χρεια
αξιοπιστη
wal
##πιστο
αργοτερο
διαβαζουμε
##ors
##ντιν
mode
λιτρα
υποβαλουν
τεε
επισκεψης
αδελφια
δραστες
1978
θρεπτικα
περιφερειαρχη
ισραηλινο
ζητειται
##ποιουμε
ιατρικου
εστιασης
##καθορι
mark
προκαλεσαν
σαββα
ιγ
##ηλα
κατανοητο
χρησιμοποιησουν
γεμισει
##συντονισ
κινδυνων
παραμετρο
στεκεται
αδρα
χορηγησης
ερωτευ
αλλαξουμε
##ελαιο
φουντ
κεραυνο
επιβλεψη
φακ
τεκνα
μεγαλυτερους
αποδοχες
προσθεσετε
εκπληξεις
σημ
##εζε
american
αποτελεσματος
win
νοεμβρη
##κιου
ποδοσφαιρικο
lg
φαινομενου
τυλιγ
##σπονδ
ξεπερασε
189
ανακυκλωσης
συσκευασιας
επιτροπων
επιπτωσεων
μιν
γενικως
##δηποτε
καλυμμα
ενδεχομενη
αεροπορικη
##βος
μικροτερα
##ληθει
μπαταριας
πραγματοποιησαν
##τυπων
αερας
ερειπια
διπλωματικη
μητρικη
νοσηλεια
mor
απλος
συνεργεια
σκο
συμμορφωση
συνταγματικη
καταβαλει
##ισω
οικολογικη
αδιαφορο
συνεργατη
αρρωστο
##ζητη
σοι
αβεβαιοτητα
διατηρειται
cup
αισιοδοξο
στελιος
περικοπη
λατρεις
ορισμου
μητρωου
δικηγορου
αναγνωστης
##ελι
class
επιταχυνση
αναδειξει
##γιου
ελεγχεται
βλαστηση
σωστες
##λινη
check
ιωσηφ
προσωπικοτητες
κινητης
επιστολες
##αλι
ποτ
##μαρτ
##δοσι
τηλεπικοινωνιων
αξονες
μεσσηνια
αναλαβουν
τουαλετα
βαλεις
κλιματος
ανοιξουν
πνοη
φιδι
κολαση
αφιερωμενη
μανωλης
πληκτρολογιο
##ριστο
sin
σταθμη
συνομιλια
αποχη
συνειδησης
##πολε
φλεγμονη
παρουσιαζοντας
αντιμετωπισουμε
επαιρνα
χρησιμη
##τικως
sms
##hel
κακοποιηση
γνωμοδοτηση
κυρος
επαγγελματος
πρωινες
##lot
mer
γινω
νορ
φτιαχνει
καρδιες
##αζε
δυτικου
##ρφ
διαχειριστει
λακ
ισοτητα
point
##κλοπ
γκρε
χαρακτηριζονται
##ργ
##κοινω
##γραφικο
αρθρ
αποπληρωμη
δημιουργηθουν
op
αθροισμα
ολυμπιακους
εισαγωγικ
χρηματιστηριο
επιχειρηματιας
##ομενης
πολιτισμικη
αναγνωσης
λεξικο
παρουσιασουν
γειτονες
προσωπικοτητας
αναπλαση
αυστηρη
ποσοι
γρηγορης
ευαγγελια
συγκεντρωνει
μαθηματικο
hi
ενσωματωμενο
χιλιο
ipad
χτυπησει
##ιβ
υποψηφιο
##γλωσ
συνοικια
##σινη
##φορου
##ποιωντας
εισηγητης
ψεκα
διωξη
θεωρη
προσκλησης
δημοφιλης
υποσχεση
λογικης
pet
αγγλικης
##ring
##ωσα
εαυτους
##lie
πεισμα
νεοτερη
προσεφερε
ελεος
μικ
ξεσπασε
za
βολο
ρωμης
λειτουργησε
ανταποκριθει
συνθηματα
καπνου
δρωμενα
ανακτηση
ολικη
ρισκο
μπερδευ
τοποθετησε
τραν
##ρχες
##μπη
διατηρωντας
##hs
πυρετο
ανακληση
λευκωσιας
ακεραιοτητα
##λιδη
inc
μαρκου
##ann
γνωστους
##λαμπ
κερδων
σφαγη
ανωτερα
ψαρα
##ρκα
ομιλιας
##μολογ
δοκιμασετε
συνθετο
εκκινησης
##ισμων
εφετειο
##χειρ
ανασφαλεια
συνθετουν
μετασχηματισμο
ωφελη
ζηταμε
##ωματος
αριθμων
επιτελειο
δεκτο
βιωνει
προλαβει
ευρωπαιων
πεζο
υφιστανται
φιλ
πανεμορφη
καταγραφεται
λιο
ενιοτε
αξιοποιησης
καθαριοτητα
εξελεγη
πληροτητα
road
μεσημεριανο
νομαρχια
πυρκαγιες
##ργος
επισκεπτονται
ξεχωρισ
πληρουν
παχος
επισημως
θεατη
δημοσιοτητας
##πτε
syn
##χειρηματικοτητα
ασυρματο
κυα
αθλητικων
##βαι
ενφια
βαλετε
θορυβο
##ωδης
διανυκτερευσεις
υποβαλλει
χημικο
γινονταν
προβαλλει
##ιστικες
ρωσικο
μολ
ερχομενο
##αιων
εθιμα
αφησουν
##μετρα
##χτηκαν
γονιων
στιχο
επιστρατευ
λαμπρ
##νακη
χριστιανους
λογαριασμος
παραγ
##χλμ
λεμεσου
επαναστατικο
κριτικο
sub
χειρισμου
##δοθηκε
##πετα
συγχωνευση
αποθεμα
ιβ
##φωνη
κελσιου
ομαδικη
συλλογοι
motor
επιλεξουν
λακωνιας
αστικων
αιωνων
##βασιλ
διακοπτη
νικα
##ομ
βελτιωσει
κανναβης
εκδιδεται
##ρουμε
κρεατος
υποσταση
##τειτε
πρωτοχρονια
laptop
δικαιω
δημιουργου
φραγκο
καθορισμο
##ριζο
αναποσπαστο
διαφοροποιηση
πελ
##rat
καμπανια
παναγ
αεροσκαφος
σταθμοι
αιγ
##αλια
αναψυχης
παραγωγος
υποδεχεται
##εντ
πρωταθλητρια
εγκρισης
χαρουμενο
ονειρευ
##σαρκ
εξοφληση
υπεροχες
μαγνησια
ταψι
##βρο
μποφορ
##οντο
##χτα
επιχειρησιακο
διασκεδαστικο
##πλ
##λμ
ιστου
αυξανουν
1976
ψαχνετε
##ations
ονοματεπωνυμο
αυξ
υποπτο
χρησιμα
##αποστολων
αγγλικο
καπιταλισμου
βαθμων
ξεπερνουν
μικροτερες
σκεπτικο
βιταμινης
ασφαλεις
απαντωντας
ασθενειας
les
αδικια
απαλα
fashion
apo
κρονο
κακως
επιδοτηση
κατωτερο
ρωσο
θεσμου
##πνο
γεωμετρικ
ησυχια
##τηκαμε
αντικειμενικη
κουνουπι
οντοτητα
μαυρες
##νωση
##θεντες
διαφανειας
σιγουρια
περιμεναν
οακα
τελικου
##νιδης
διαιρ
##ami
αδυναμο
αστυνομικου
δεκαπεντε
τροχαια
διασωση
control
ρεθυμνου
πορισμα
εξωτερικες
φιλες
βαπτιση
βυθο
ισορροπιας
δημοκρατικης
εντατικη
ομοφωνα
καμπο
ατσαλι
room
καυσιμα
υψηλοτερα
νομοθετικ
ανεφεραν
eurobank
##εβ
ανεγερση
τοποθετουνται
βορειοανατολικ
κυμαινεται
mel
ασφαλτο
μεταπτυχιακων
κατατεθει
ονομαζονται
ηρεμη
υπηρε
γκαρ
down
##κεια
##φθα
επισκοπος
##oz
μολυβι
αγορασε
κοντινη
##kg
συναρπαστικο
πιπα
##ενεργ
ακροπολη
καθισταται
##τεκ
θυσιες
##sch
νεοτερο
αισθανομαι
αισθητηρα
προγραμματισμος
φρουρα
ταξικη
λιπο
τηρει
αντιστοιχων
ψηφισε
χυσιμο
μοναχο
διαφωτισ
μεταξα
διαπιστωθει
##day
##vin
οργανου
ιεραρχια
σερβο
σοου
δικτυακο
σκεπασ
##form
##αδων
προχωρησουμε
ηλθε
διδαχ
εχθρος
αστυνομικες
##ome
##ωθ
ανεσεις
##oli
##τυπη
χαμηλων
ομιλων
φανατικ
καθεται
εκκλησιαστικο
george
αργεντινη
σηματος
ελατε
σαφης
κορν
βαρκελωνη
μακρον
κεπ
νοσηματα
αρχιεπισκοπος
##over
συμπερ
ντους
επιχορηγηση
αδειο
αδικημα
state
επαρκη
σταδιοδρομια
κοινοτικη
##ωρου
pen
υπουργους
##φθορ
κρυφα
νεκροταφειο
εμβολια
##πτη
##ρωμα
τοποθετησης
βαφτισ
αναρτησεις
αποθεματα
σιδηρου
μεσογειακη
##τερους
βιλ
θρησκειας
ισχυρισμο
τομος
πρωτευουσας
καταρχην
ιατρος
περπατησ
κολπου
ελιες
αδυνατον
##γονι
ευχαριστηση
party
ροστερ
κομψο
δον
κατανοησει
ερευνη
sto
μυικη
βαζω
συγκεντρωσε
προεβη
επιβληθει
περπατημα
ημαθιας
προσθεσει
ελευθερω
γηρα
εξυπηρετουν
κατορθωσε
wind
στερεο
μελλοντος
εξηγησει
##ονι
ηλικιωμενο
πολλαπλες
πιτα
##γουν
λαν
αναμφιβολα
στρατευματα
μπιλ
μεταφερεται
στεφανου
1968
sol
απορροφ
πρασινα
απολυση
baby
επομενης
επιμελητ
##uff
γνωστικο
##for
σπαρτης
διαχειριζεται
παραλληλο
τραυμα
αυγουστος
αξιωματικων
ποινικο
συνδεσεις
πολεμους
εκτελεσει
οφ
εκτελεστικη
χαρακτηριστει
τρομοκρατιας
καταιγιδες
ουασιγκτον
βολει
μεσολογγιου
med
##back
οξεα
επιδοματα
βεν
##καλου
μεταβει
ρωσικης
οτα
προστεθει
αγγελο
##ουμενων
προσλαμβαν
##rus
ste
πανι
##γγελ
ford
bd
cyprus
pas
##χριστ
καβ
πολυτελη
δειχνοντας
χειριστη
##κοφ
συχνη
αληθειες
##ιανου
ακουγονται
ηλιθιο
προπονησεις
κοντε
ζητησης
τραπεζικου
διαρκεσει
προτεινουν
εμπλεκονται
βασισμενο
χαλ
##ye
πεθαινει
μεσι
παπι
##tr
μολονοτι
συστασεις
ze
μπλουζα
##χαρακτηρι
παρκου
##σπορ
διημερο
γλεντι
τμ
κρατικης
πρωταγωνιστη
##χωρου
ταξιδεψε
βεραντα
μανι
σκοτωσε
εισαγγελεας
εντασσονται
##σθουν
μυκονο
πολεοδομικ
τροφης
εστιν
δημοσιους
γυμναστικη
φτιαγμεν
##μερη
εθιμο
γραφικη
μυκητ
college
wifi
##στατο
ηθοποιοι
συχνες
ζητω
δικαια
διασφαλισ
συνηθισει
αναρχικο
φαραγγι
##σκευα
##παραγ
εκαβ
μουνι
τρεξιμο
αξιζουν
##νον
##ιγκ
βλαβης
αγωνιζονται
ερα
##act
##αλλα
κλεινοντας
##εδ
αντιστροφη
στρατηγος
ελιας
εμμεσα
φωτογραφο
αμοιβες
εργαστει
##εξα
##χτη
##ky
σεβεται
γενος
αντιγραφα
οθονες
ονομαστικη
συντελεστης
οριστει
##ings
##nn
αναδοχος
φωλια
φαινομενων
διελευση
συνταξιουχους
διαλεξη
μανιταρια
οργανωσε
προστιμα
σκορερ
##cer
μιλουσε
φιλιππου
##φροσυνη
λαικα
δανειου
γρεβενων
χρηματοδοτικ
##ati
##υθ
ορθοδοξια
νευρα
ανωνυμο
ευεξια
##νιτσα
τιμην
φυσιολογικα
mal
συντονισμου
ισοτητας
##σκυ
ικ
παρουσιασεις
οδηγηση
παρανομες
##σση
μπρο
αναδειχθηκε
μεταβολισμο
καραισκακη
εστιες
gt
ανησυχη
επετρεψε
##ien
αγοραστε
διαρθρωτικ
σαμο
εξαιρεσει
χοντρο
προτιμησε
##μενω
ουρανιο
δημοκρατικου
φαρο
προβα
σαι
γιατρων
διακρινεται
ελεγξει
πολιτειων
παπας
συνθεσεις
μαντσεστερ
##sel
θηβα
κινησεων
εφευρε
ποικιλιες
απορρητου
ορισμενους
απαραδεκτη
##elli
ροπη
διοργανωνεται
κορινθου
national
συκοφαντ
συντηρητικ
##εττα
ομαδικο
προχθες
αγιον
bb
υποστηρικτες
αποδοχης
τραβα
πρωτοβουλιας
ερευνητικα
υλοποιησ
σταθερες
επιβατων
αναγνωρισει
στρατιωτικης
ισχυουσα
ελαστικα
δεκεμβρη
προσωρινο
αρμοδιος
##ουμενα
απολαυσουν
##lk
κοψει
σκυλος
κτηρια
πολλαπλα
συμβιβασμο
φωνα
προμηθευτη
ιουλιος
##θερμ
δολ
##θου
αρτια
σκορπιο
συνεργειο
πειρασμο
ευαγγελιο
καυσιμου
παλαιου
##mann
pic
δωματιων
εφτιαξε
##ριζει
νομ
εριξε
αρχην
##αρμο
##μονα
##elle
σφαλματ
ποντικι
πιστοποιητικα
καθιερωση
δοκαρι
##ness
μορφωση
γειτονικες
##log
καθαριζ
gia
##δεκτ
θεων
αικατερινη
##ιβα
σταδιου
ενδιαφερουσες
πεζοπορια
περιεχονται
γνωριζαν
ψυχ
ρομπερτ
230
##ραγ
αμεσες
μυρ
106
##ημερη
##απελευθερω
παρατηρουμε
sy
##θρωπ
καταστολη
μηνος
##τρυ
απονομη
βαφη
ενδιαφερομενους
σχολικα
kw
φιλελευθερο
##γαλο
ανοιγ
τριχα
διηγ
διακρινονται
σπυριδων
παιδο
αψογη
γεματα
##ρετ
##ken
πιστης
ειχατε
##τσιου
επιλεγουμε
θεσπιση
καρτων
επιγνωση
οροφος
οπουδηποτε
##ρηδες
διασπαση
τιτλων
##300
επιστρεφουν
υδρα
παλα
τραυματι
##στον
μηνυματος
καρναβαλι
ξοδευ
##αμερικαν
χριστιανικο
καλυπτεται
περισταση
μηχανο
##αριο
γνωμης
##ποιησεις
##ουμενες
κλεινουν
οικονομου
υλες
##αζει
εκπληρωση
παιδαγωγικο
αντικαταστησει
ικανη
cross
αφοσιωση
##stra
θωμα
ενοπλες
συμπαρα
ανακοινωθει
νοικοκυρια
γειτονικη
αντεχει
πειραματ
γραφειοκρατια
color
##πλι
πλατανια
##σιος
κλεισουν
##νιε
καλλιεργειας
##βαλα
##σημο
επικρατηση
angel
γεγονοτος
οικος
διευθυντες
##ole
##αποφασιστικοτητα
μειονοτητα
ριο
πλυ
ισπανο
special
καρδιακη
##μινο
πανεπιστημιακο
συρταρι
δημιουργημα
1930
γνωρισουν
##βλι
αναγκαστικα
συνεταιρισμο
ζουσαν
φθανει
μοιραζονται
υποταγη
συνδεθει
πδ
μεταμορφωση
εισαγει
μιλαω
υιος
πες
ολοκληρωσης
##κρατια
τοποθετηστε
εταιρικ
αναπνοη
δολοφονο
york
##κομμα
μεταλλικα
mad
##νταρ
φορτηγα
##δηγ
κλασσικο
γηρανση
flash
εγκαταλειψη
πρωτογενη
βασισμενη
εδειχνε
εμπνευσ
##eau
εσχατ
μυτιληνη
λατρευ
δασων
τασης
απαραδεκτο
λενιν
λογικες
εννοουμε
πον
υπηρετη
μετωπου
αμερικανους
εκδοσεων
##ui
240
λεια
τελικος
ιλ
τυφλο
##υχα
πληροφορικη
παγια
118
μακρινο
##φορμ
##βιτ
δικαιουχους
σκοτεινη
κατεστη
παθηση
λιβυη
υδραυλικ
χαμενη
πραγματικου
συνειδητοποιησ
##χρωμα
παπουτσι
τσιμπουκι
εξαλειψη
διαβαζοντας
κερδισουν
επιδιωξη
επιθυμητο
sl
##gy
ισοζυγιο
##λογηση
μιλια
αργους
cho
οργανωνει
επικινδυνες
##ρικου
##iti
σιροπι
εκφρασεις
πριγκιπα
102
##ματ
διακηρυξης
αναμετρησης
##ρριπτ
καλουν
εργασιμες
εγκριθει
αντιπροσωπευ
##ψυχ
περιεργα
κοι
εξορι
εξασφαλιζουν
συναμα
##τισσα
τζακ
εκρινε
ενημερωθει
##dd
αναγραφονται
κρασια
ανακυκλω
network
##στηρια
ven
μεγαλυτερης
πυργος
##κυττ
ψυχρο
υποδομη
##tan
φανταζομαι
διαπραγματευσης
θεμελιωδη
μεταναστευσης
μητερες
##hn
διακριτικο
wiki
ψα
διαρροη
προσπαθησουμε
γγ
φυσι
##τσελ
θρησκευτικων
ιουνιος
she
ακολουθηστε
θερμικη
##ura
συρμα
κριτηριων
ζωγραφ
##νταγωνιστικοτητα
γραπτο
αποριες
κλινικες
κουραση
εξοπλισμενο
ειδοποι
υποκειται
παρι
αγωγου
περιβαλλοντα
εβλεπα
διακοσμητικα
ολικης
##κιδης
αουτ
αντιτυπ
φιλιας
φανε
δευτερολεπτο
##μικες
υφα
##ποιησουν
αθλητικου
ουδεις
##oe
ελεγχοι
γυμναστικης
γυρου
προβολες
##ost
ζητηματος
εδιναν
προοδευτικη
##ρχου
ευχαριστησε
ερμηνειες
##αδ
διαφερουν
##bra
##εξε
στοιχειου
δικαστικο
αλλαξαν
φορολογικης
##αλο
φευγουν
ομιλητες
##σλαβ
χρησιμοποιουσαν
##ουσης
συγνωμη
χαμηλοτερα
προσελκυ
##δεσ
κηρυξε
καυση
##αρης
ae
ενεκρινε
καταγραφονται
ζωδια
καρτελα
750
ραπ
##αρες
χαρας
κλιν
κουρε
βαθμοι
υποβαλλεται
μεθοδου
συννεφα
##lio
διαζυγιο
ατομικες
αγγειο
##θλη
##θεμα
##παπ
ιταλικα
μιλησω
παραγωγοι
διαμορφωθηκε
διακρινει
##rit
δισκους
σεπτεμβριος
πλατφορμας
εβραιοι
επιθετικη
βρετανικο
ρηγα
##τηρι
τοιχου
συγχ
##φυλ
ημερησιο
λιμενα
αστερας
δημοσιογραφων
οποιοσδηποτε
ζακυνθου
γειτονιες
επιτηρηση
αρκαδιας
αρχαιοι
υπογραμμιζει
αδελφοι
υπολογισμου
##πιδ
##ωσ
##ser
γονατο
δομης
γω
οκτωβρη
tom
οροφου
αναγκαιες
ανεξαρτησιας
αποελ
##att
γνωστον
νυφη
λευκου
εκπροσωπηση
##λισμος
διαθηκη
δανειζ
προτυπων
##φανει
χαρισε
##φορντ
επιχειρηματια
##ουμαι
bluetooth
φανταστειτε
κορης
φροντιστε
κατεγραψε
##τεσ
τσιμεντο
χαλκιδικη
διετελεσε
ενοποιηση
##επε
τραβηξ
φαουλ
##σανε
εξελιξεων
ερχοταν
λυσεων
ξεναγηση
βοηθησαν
φιλοξενησει
##med
επιδρασεις
τραγουδα
ιδεολογικο
βολτες
συνεβαινε
εξηγησεις
καποδιστρια
##αρη
σπαρτη
συνεχους
δραματο
νοημοσυνη
κορυφαιες
λιμανια
τουρκικου
γεροντα
υπουργεια
κληρικο
βελτιωσεις
##φρο
fra
##don
##ute
γειτονιας
υπευθυνοτητα
καλυψης
εγκρινει
ολιγο
ακροδεξια
πνιγ
καλλικρατη
οικονομ
πλησι
##ηξ
##cr
μπρε
γεννησε
##ινια
μαθαινουμε
χορηγο
##ποιηθηκαν
δικαιολογια
βραχυπροθεσμ
στρι
θαναση
περασουμε
ραγδαια
δομησης
διεκδικει
κοιτ
ευχομαστε
παχ
οντα
αποσυρση
αφγανισταν
παραστατικ
1971
ρητορικη
##ησεως
##400
μεταδοσης
κατοικιων
jean
προαναφερομεν
τουριστικα
##vel
##field
αρμο
διοχετευ
επιβολης
μετακινησης
οδηγων
παθ
##λογει
μπαρμπα
βιαιο
πικρα
επιχειρησε
μερακι
αφεντικ
κανονιστικ
##συνθεση
οδικο
λαοι
αποχωρησε
##σβε
χορευτικ
παραδοξο
βερολινου
μαη
αποσπα
ανταλλαγης
##lock
νια
ψηφισει
συμβουλους
ιιι
εξετασει
κλασικ
μεταρρυθμισεων
##τωση
ενιωσα
καταφεραμε
##σκοπηση
αποτελουσαν
καταθεσης
##χρησιμοποιηθηκαν
σημερινα
πειραματα
##εργα
διατηρηθει
ζακυνθο
ατομικης
πειραζει
μυκην
συγκροτηματα
πολεμικο
φτα
αγροτικες
πληρωση
κρατησουν
ξεχωριζουν
αναζητησεις
ατο
επισημες
πατωντας
σιδηροδρομικο
##πρεπε
φορολογουμεν
capital
ξυλινα
##ταγ
αρχιτεκτονα
ελαιων
φιλιππ
πελλας
##κρυ
αυξανομενη
κρυφο
ζωγραφισ
κυκλοφορ
1922
παιδικων
τεως
εδρευει
##θελ
λειτουργησουν
εισαγγελια
pra
κακ
μαρκο
βελγ
δυνατες
συναισθηματων
επενδυσης
γεωγραφικο
τοποθετησεις
μελετα
##μακ
γενετικη
μακεδονικη
εξαπλωση
αμφιθεατρο
θμιας
ανταποκρινονται
γεωργικη
επανεκ
que
##qu
##rp
αισθαν
##τθ
##λκ
μεγαλωσει
αναπτυσσει
γλυκου
συνεχισα
ανακαλυψει
ολοκληρωσ
γονεα
μηχανικο
θερμοτητα
1964
θετουν
ληγει
##λεπτο
γραφημα
σχε
υδατο
διαμαντι
πεταξε
stoixima
ενεργει
##ριδη
γαλακτοκομικ
προσελευση
##less
απρο
καταλαβω
οργαν
##ριαν
βαρκα
##τισε
##ax
energy
##κεντρ
ανησυχει
απαρ
παρατηρει
δημαρ
##πτυ
ειδικοτητες
##ανθρωπο
ιλι
πονοκεφαλο
εγραψα
γραφικων
δικια
##αριθμ
ιντσων
παραλιας
πιεριας
περασα
συνεκ
δασο
πειραιας
ριμπαουντ
εφαπαξ
επιβαλλουν
ασθενειων
απαιτητικο
##ωμενων
work
ξυλα
##dom
ραντ
1912
νικολαο
airbnb
σαλαμινα
αποδεκτες
φαβορι
ανεξαρτητος
συμβουλευτικη
γνωστου
εβ
##αχ
σημερινες
συμπαντος
ταυτο
ms
σοκολατας
τραπεζια
ρυθμιζ
1972
παιρνω
τηλεφωνιας
##κολα
##ωμεν
εγγυησεις
αναπτυξουν
δροσερο
αποδιδεται
view
##νομια
ξυπνα
ασχοληθηκε
αγρι
ετοιμαζει
ακτινα
##σακι
δασκαλοι
1943
φρουριο
διεκδικησει
ωρας
comp
αιγαλεω
ts
χρηματοδοτ
βαθμολογικ
καλεστε
δρυ
ελενης
περιφερειων
αστυνομικος
υποπτ
οικοδομηση
ανθρωπιστικη
##γκαρ
##γιανν
καλυτεροι
διασταυρωση
αεριων
αλεξανδρειας
εκπα
αποκαλουν
συνταξιουχων
τεμαχιο
υπαιθριο
μαθαμε
δινω
καρφι
##ομεν
##gs
αναπνευστικ
ορθοδοξιας
πνευματικου
##oni
πρωτοτυπη
κληρο
κακες
ψαρεμα
χαρις
διασημη
κηρ
ασυλου
ανοδος
καθοτι
##anna
πυλες
ποση
πρωινη
παντρευτηκε
κληθει
##ote
διατηρησης
ειδικοτητων
καραμανλης
επιλυσης
##γραφικη
ενδυμα
μοντε
ελευθερες
καφενειο
εγκεκριμεν
πλαισιων
κωνσταντ
sur
αναζητωντας
κτηνοτροφια
##ριος
βελτιωθει
ευβοια
καπνιζ
μικροσκοπικ
ενδιαμεσο
γεννηματα
οικειου
βιωσιμοτητα
ir
index
εφιαλτη
συντομοτερο
πλειοψηφιας
##τακης
##νακης
κρατουσε
##βιε
λεβεντ
περιγραψ
αναμονης
ομογεν
επικαιρο
εκκλησιαστικη
κοκκιν
##rio
παιδικες
πλακας
σαφηνεια
mod
##γραμμα
ζορι
φωναζει
ετυχε
αρτα
365
προοδευτικο
νευρικο
διασημ
αδιεξοδ
παλμο
night
χημεια
πολιτιστικες
##lf
audi
global
κυψελη
##ησα
##ιτσας
##αρισμα
σοβιετικη
##burg
καταγραφης
##θεντος
ασκητ
εργασιακο
εργατων
ολος
καλλιεργει
νικηφορο
rec
κατασκευαστη
κλιματικης
διατροφικη
ασιστ
pin
σημερινου
νομισματικη
συγκυβερνηση
ρατσισμο
παξ
##λυν
ταξεων
οδηγιων
βιολογικα
##time
##τσιν
υπερβολικο
διωξης
ατυχηματα
ψηφιακων
κλησεις
ορεινο
εκαστο
υπογεια
περναμε
φανταστικη
περιφερειακες
πληγμα
απαιτουμενη
κατεβασετε
ειλικρινεια
μαρουσι
ζητουμε
γατες
πορευ
παλαιοτερο
##τραπη
##nel
στοιχ
εδρες
##ρχος
λιμενικου
απριλιος
nm
αρνι
κοιταξε
μαθησιακ
χειρουργικ
##φερει
αρκ
δημοσιευσεις
παραδωσει
νομιζουν
ele
##λαβω
ταχα
πιστους
##μορ
διενεργειας
##ρντ
γοητεια
ποσον
##πιου
##κως
θυμομαστε
##ωνται
συνοδευονται
στρατη
τζαι
στρογγυλο
κορινθιας
νικαιας
γειτονα
κεν
ηχογραφ
αστικα
αιτιας
##ston
παλης
##βολων
##μεθα
καυτο
##lic
##ski
εξοφλ
χρονιες
αυτοδιοικητικ
φακελος
ago
προσθετη
εμμονη
περιοριζ
παθησεων
##θανα
βουλευ
πηλ
δυστυχημα
γελια
καπνισ
κρατουμενο
προστατευουν
περνανε
εμπορο
face
βελτιστη
νοτο
δυσης
θελημα
πλατειας
ταγιπ
ρυθμισεων
will
μελανι
επομενους
ουδεν
πρασινοι
θαυμασια
αποκριατικ
φορολογικες
##ταλ
διαβιβασ
cam
σαχ
gps
αγνοει
εγκυος
ταλαιπωρια
ποτων
κοτζιας
περνουσε
αποκαλυψει
γαντια
ιον
##ιακη
πιστευεις
vol
αναπαυ
αρχαιολογικου
##πυ
martin
ζητουσε
υπολογιστικ
τοποθετουμε
αποτιμηση
##παπακωνσταντινου
συντηρ
##καμπ
δανειστων
##επεξεργα
πασχουν
##χης
##ερχεται
sky
νοτες
##ori
ιθακη
ξεκινησα
φυλλου
αθηναι
μερων
εκτυπωσης
οδηγη
εξυπνα
λαβη
##γραφιας
##ωφ
ποντιακ
μπισκοτα
παο
ανηλικων
επιχειρουν
παππας
##τηρες
φανταστει
##δρε
ληστ
ακυρων
ακους
προεκυψαν
μπεζ
name
εκτιμουν
χρησιμοποιω
αμερικανικες
δεκεμβριος
##τιας
τακτικες
νοσοκομειων
formula
γραμματων
##ρισματος
διαστηματος
mont
εφηβεια
προσεγγισ
##χρ
κερδους
ορεινη
πρωτοφανη
ενεργητικο
υποκειμενο
##τησε
βιτ
player
νικητη
αποσκοπει
old
νεφωσεις
διαλεξεις
##ιθ
##ase
lab
##wn
εξαιρετικης
ομιλους
##ριζ
παραμετρους
μαρμαρο
μεσανυχτα
ενωνει
ονοματι
κρεβατια
ειρ
west
##πρασι
pol
journal
περσινη
κριθηκε
ενεργου
εγγραφειτε
καπελο
rep
ανεπιθυμητων
κυβερνητικες
εχθρικ
αποφασισαμε
φιλιππος
##στερο
θυμω
νεω
ποδοσφαιριστη
φορτηγο
##fin
θολο
ρωτησω
##πετ
αλλοδαπων
επιφυλαξη
αποδοσεις
αγαπαει
μελλοντικες
διαμαρτυρια
μελαχροινη
αυτοκινητοδρομο
ασχετο
000€
αθλητη
tech
λειτουργουσε
##δομη
δεσμους
εντοπιστηκε
οστων
φοραει
διαχειριστη
##πιστε
##cha
περνωντας
αριστοτελης
dc
αδρανεια
##ισμενη
##κερα
φαιν
ακριβες
##λιε
συνεργαζονται
τοποθεσιες
bre
σκεφτονται
##ιδος
στρ
μεσον
κομπο
πυρκαγιας
##στασι
##μαγειρε
παπανικολαου
τζειμς
αρχοντα
oil
##πιο
αδερφη
##ωτων
αποκαλυψεις
ζητησουν
σοιμπλε
καλους
αγγελιες
αθηναικο
ακριβης
αντιγραφη
κοκα
ψηφιακα
##life
επιδεινωση
κακια
αρχαιου
ανακοινω
εξελιγμεν
βροχ
ρομαντικο
θεοφιλ
εκεινου
προμηθειες
##ette
αλεξανδρουπολης
λασπη
οξυγονο
reading
om
πιθανα
ιδεολογικη
κουπα
αντανακλα
standard
εγνατια
ιεκ
μελλοντικα
εξασφαλισε
##βαπτισ
υποκαταστημα
κριτικης
αλιειας
επιθετικος
##km
##ona
φιγουρα
ελεγχ
αναπαρασταση
λυκου
ποδηλατα
ανωτατη
φοιτητικ
ηπειρος
λαικες
ακρες
##ουμαστε
128
κοπης
αρθριτιδα
##tp
##μπολ
word
κλαδων
##κακη
αποχετευσης
services
σκαφων
μηχανικοι
παιδακι
##κυβερνη
αντιμετωπισε
##στεγασ
οψεις
γρηγορες
αποδοχων
συνειδητα
διαπλοκη
##κρυπτ
φτιαξουμε
προσληψης
general
σερρες
αναξιο
##διδουν
γενους
τουριστικου
κοπωση
wall
##τουρα
βρ
παυει
διατριβη
προλαβε
επαρκως
θιγ
μονιμου
στρεμματα
μισθωσης
εξαμηνου
χεριων
μεσαιωνα
εγκαιρως
##ney
but
κρητ
εγκεφαλικο
ακτινο
θεοδωρου
υψη
αναγκαστηκε
##ξεν
μεμβρανη
περιμενεις
εργοδοτες
ιδρυτης
εξουσιοδοτηση
θαηα
δικτυακου
##ησετε
αμερικανων
##ομοιω
καταπιε
δημοσιογραφο
δανεισμου
##τροπια
ins
ενσταση
κυλι
ανεπτυγμεν
1965
υδατανθρακες
παρατηρησε
συγκεντρωσει
κατηγορησε
νομικες
θεωρωντας
γεροντας
ανοιξαν
καδο
σκοτωσει
εισαγ
χτυπαει
ναυπλιο
λιονταρι
τειχη
μειωθηκε
δασκαλους
ισοδυναμο
μυων
περιθαλψης
κανελα
παραμικρη
ξεκαθαρη
πατριαρχειο
βαθμολογιας
αρχαιολογια
κελι
##ρρο
##ετων
εννια
##ado
πραγματικος
διασκεδασης
παρατηρητη
εκβαση
##γματα
τραγουδιστης
παρενεργειες
ενισχυουν
γαζα
κρητικη
αναπτυξιακο
υπαρχουσα
##εσθαι
ομαδικ
οπισθο
μαζικο
στεγαση
πληγες
μελα
ηττες
απεβιωσε
πλατυ
αντιμετωπιζεται
συνεχιστηκε
γαλλο
εισαγωγες
##αρτ
γλουτενη
οργανικη
δολο
μηχανισμων
ταμειων
βαθμιδα
##δρι
##δαιμονι
υπερβολη
lan
##box
τραχ
κλασσικη
κινηματα
φιναλε
sites
καπεταν
διεισδυ
##ουκ
ιχθυ
##ισχυ
πιστοποιημενο
αποφευχθει
##akis
παυση
βιωνουν
αγγ
βιολογικη
αγαπαμε
kal
συμπραξη
τεχνολογικο
μπαι
κυλινδρο
φορολογικου
καταρα
αδυνατη
σπε
βενετ
αγρινιο
arm
science
συγκοινωνιες
αρτηριακη
##int
περιφημη
ξεκινησουμε
δρομων
##rn
εκτεταμενη
πληγ
ζακ
χαπια
σωκρατης
λιμν
1955
πλακες
δοκιμων
περου
μαγικη
δικων
##ions
##παλ
συμβα
ζητει
διασφαλιζει
κονδυλια
κρυα
διατροφικες
190
ρασ
get
ψαρο
αειφορο
περιορισμος
κωνσταντινα
ομοια
χωρισμο
μεταφορικα
διαχωρισ
κομπ
παυλο
##βρι
φινλανδια
αντιληπτο
μηχανικου
##σκη
αστυνομικης
ημας
μανος
ψυχολογικα
προβατα
επικοινωνει
##τσιο
πατρος
ρουτινα
πολυετη
σαββιδη
δορυφορο
ελικοπτερο
σημαντικοτερες
συναντηθηκε
log
1969
επαγγελματα
##ενιο
καντ
ρουφ
πιστευαν
##ζος
bbc
ελπι
μαρτυρας
cur
πραξ
στεφανι
απαιτουμενα
tre
θυμιζουν
##λωμα
τρισδιαστατ
gov
γενικευ
bay
##ζας
ef
δικαιουχοι
##λικι
πεσ
αργη
ευσεβ
watch
aegean
τατουαζ
αποφασιζουν
cast
αρσεν
##λειτουργ
##τζε
γυρισα
cu
ημερολογια
αριστ
ελκυστικο
αφηνετε
αρμοδιοτητας
imp
πατατα
κοκκο
ευτυχισμενο
##πλαστικη
προισταμενος
προπο
υποστηριζεται
ios
στολη
##lip
##zer
##δικης
εμπορευματων
##ευουν
θριαμβο
σπερμα
εταιρικης
καταβαλλει
κοβει
ελαιολαδου
στρατοπεδα
##σσεται
ξανθο
θεω
κυβερνητικου
επεκτασης
##ταλαιπωρ
νεφρο
συμβουλια
ακραιο
ανησυχο
εξεταστικη
ντρα
αργολιδας
ριζο
τιμητικη
μισθου
προηγηθηκε
ζαεφ
αυξηθηκαν
run
μαγο
ενωσεων
μαθε
γαληνη
εμπορικης
##θεσεως
βυζαντινης
λαστιχο
υγρου
συμμορια
συγκλιση
πιεζ
αποζημιωσης
##σεισ
σημαινε
ιανουαριος
αντιμετωπιστει
##σσου
επαιξαν
βλασ
μειωνουν
τοπια
ανασυγκροτησης
δανεισμο
ταιρι
συνυπαρξη
103
παπαγεωργιου
φθηνα
bc
μεταπολιτευση
υφ
ικανοποιει
##χειρη
ob
λουκας
εσπε
##iro
βιβλιοθηκες
περιστασει
##οφορο
παναιτωλικο
τηλεφωνικα
##ρανη
##ero
μαζεψ
ενδιαφερουν
κλιμακιο
προσπαθουσε
##γκεν
περιηγησης
δεκτες
##tech
μετατρεψει
κοτζια
##ματια
ετα
αναγνωριζουν
##πακ
επηρεαζεται
βεροια
##υχων
##λλος
ανεξαρτητου
καλλιθεα
ναυτικη
αφαν
ταξιδευουν
##νιω
##ula
ασκειται
δυτ
##φρε
μιλανο
##ουτ
##σουλα
καμπανα
διαπιστωσε
κρουσ
δειξουν
1963
καταλαβετε
##τερον
γνωριζεις
διετια
λεμεσο
##cho
τραγουδιων
σολα
εντοπισει
λιβανο
πεσουν
λοιμωξη
ποταμια
##ωνας
παρουσιαζουμε
απεδειξε
συνεχιζομενη
##ψλ
πολιτιστικος
συστημικ
##ινεται
παρακολουθησαν
survivor
αποδοτικοτητα
διδακ
ενταχθουν
ανθρωπ
οικονομικους
πυκνο
112
##τορ
gmail
στεκι
αναμενονται
βιολι
προστιθεται
σημειου
##μηχανη
μαρτιος
##κακης
##ifi
συγκρ
key
πιερ
εμοιαζε
ταπεινω
συζητησουμε
καταστροφικη
υπερταση
συμμαχιας
χημικες
resort
θαυμασμο
δελτα
φιλοδοξ
##εντα
γλυφαδα
διαιρεση
βιομηχανικης
πυρηνικη
χαι
γεμισε
εγκληματικοτητα
##φεν
ιταλικης
michael
θεον
χαρακτηριζουν
##nik
λαχανικων
υπολογισμος
συμπλεγμα
##zy
υπαρχ
νομισματα
υδατα
ολυμπιακη
##γειο
απαξιωση
πενθ
παρεμβασεων
αλυσιδας
θεσμοι
ξεχνα
γονιδια
##θετω
ερμης
##σχηματισ
πτολεμαιδα
##σδ
επιχειρησιακου
ηρεμο
ακραιες
διοργανωνουν
ak
call
πρασινων
##σταθμι
εξωγηιν
ιονιο
βοηθου
robert
μιλησουν
james
κηφισιας
ηλεκτρικων
##ντζο
αγαπημενες
##ομενους
σουλτανο
qua
συνδεδεμενο
σηματοδοτει
##οδ
##ush
βαζετε
δημοσιογραφου
πινακιδες
κατηγορει
ποσοστου
##φον
bri
παγιδα
ασχημο
##ali
ατυχο
επιδιωκουν
αποζημιω
συμφωνησει
φροντισει
δασους
δυναμι
##wi
συλλογικης
αδυναμ
οδηγωντας
κατελαβε
αντιπροσωπων
χτιστηκε
##γυρι
πορνο
##tle
ku
ακουγα
χαμ
##μανης
##πιτα
προβο
##ποδα
παρουσιαστηκαν
επιλεξιμ
πληθωρισμο
##ries
λαικισμο
βρετανικ
διοργανωτες
αποθηκες
καθιστωντας
##nas
προυπηρεσια
print
δεσμη
συνεδριασεων
χορευτ
πελαγ
συνοδευουν
##ff
##off
εφαρμοζουν
##par
περιβαλλοντικες
υποχωρηση
##μερα
ανικανοτητα
ονομαστηκε
επιστρεψουμε
ιατρικα
##μιλη
πενταετια
σπηλια
σεβασμος
μεταρρυθμισης
##ξετε
λοφου
γραψε
προσδιορισμος
##θρω
##ku
κατευθυνσης
ενυδρειο
καθοριζουν
κομικ
εξαθλιωση
κλαμπ
συμπτωμα
καλαμαρια
διαχρονικη
##nia
παρισιου
σιλ
σταγονες
συνταξιουχοι
σεβασ
ακο
φοροι
νιωθουμε
##ψιμο
##ναρ
αυστραλιας
##κρε
##5€
##θους
##τις
αρμοδιων
δεπ
##rick
##γονε
παροτρυν
διαβασμα
αντιμετωπιζουμε
##ender
βαρβαρα
παλαιων
επιτυγχαν
##χθ
διαφωνια
θριλερ
fan
θερινο
συγκεκριμενος
μεγιστα
επιτρεποντας
##aa
χαλαρωσης
τελωνεια
λανθασμενη
##ροφ
##ett
υπεξ
##τιθενται
διεταξε
προηγ
αναζητηστε
##λογους
υλοποιηθει
##κοβ
##ποτ
μεγαλωσα
##uro
browser
εμπειρ
πουλησει
1500
αναμνηστικ
χαλκιδας
διαφορετικοτητα
αποβολη
αυθεντικη
νομιζεις
εμπλουτισ
παππα
υποκειμεν
κοινοπραξια
εκθεσιακο
εκκλησιων
υποψηφια
μαχαιρ
πιστευα
ιδιωτικοποιηση
γερμανικου
συναλλαγη
εκατοστ
διαιτητες
δικτατορια
##τσας
οραση
φορεματα
γιουγκοσλαβια
βαρουφακη
φωτισμος
λεγονται
##ριδα
##eli
εταιρων
επαληθευ
γαλλου
τραπεζικη
κλων
inn
κλαδι
μνημειων
διαχρονικο
μεταμορφ
##τωδη
σωτηριας
τιταν
μεταναστευτικο
##δαρ
πρωτογνωρ
action
εφηβους
δικαστες
τζιχαντιστ
##oh
κινητηρες
##urs
ουτω
βοηθο
τζορτζ
##βαση
αιτ
υπολογιστης
##συνδε
βορ
συνθετης
αντιλαμβανονται
##bar
καταλαμβανει
προτιμω
μουσικους
##λαρι
εγκυρ
##τισει
##ρχονται
αυρα
φρασεις
επαγγελματια
##ανδρο
κοινοτικο
αυθορμητ
##ral
κατασκευαστηκε
διχτυα
##τιπεριφερειαρχης
γεωργικων
εκτυπωτη
δοντιων
bill
σταματ
εντασεις
φλεβ
φυτικες
επικειμενη
##εζα
βανιλια
express
##γμενα
##ισο
κλεινετε
χειρουργικης
λωριδα
θειου
τριπολη
τακτικης
παπαδημητριου
αξιολογο
μουσικου
##πωλ
φωτιας
##τζο
αλεξανδρουπολη
κινδυνευουν
φτιαγμενο
ασπρομαυρ
κινδυνοι
προκοπη
υπευθυνους
λουξεμβουργο
προφανη
κρικο
μισθολογικ
φουστα
βουρτσ
παρακμη
##βαινει
παλιου
τρωμε
επιτελει
vin
##vision
ευφυ
καταβαλλεται
διψα
περιφερ
##γιν
εντ
διεισδυση
αγροτικου
τομη
βρυση
##ζολ
ζυγι
ασχετα
φυλλων
track
αποκτησετε
πιστος
προσκλησεις
αποικια
εκλεγει
επισκεφτει
ασκησει
ουρανος
smartphones
ισχυριζονται
royal
δημιουργικης
βιν
κερδοφορια
προκληθει
##οβο
##θεσια
συσπειρωση
fre
επικοινων
τριφυλλι
##zan
πυρηνικο
μεγαλυτερου
ποδιων
continue
γυρνα
συγκρου
##lc
ακτιβιστ
νομιζα
##sti
διαβατηριο
108
##ρισματα
λεπτομερεις
αγιους
κλειστου
γυριζει
φρανκ
γενευη
εντο
μαζικα
αυτονομο
moto
ακροαση
μυτιληνης
εφικτη
αμυντικη
##ρχης
cosmote
ξεκινησετε
αφεντικο
μιχ
συνθεσης
##εκτομη
επαναφερει
αμφισβητει
ter
καταλαβεις
ανεβαζει
συμβολισμο
βασανιζ
γραφοντας
##λασ
συσκευασιες
brexit
μαρτυριο
αναγνωρισμενο
απαιτ
υπαλληλο
διαλεκτο
ημιτελικο
μαρκος
συμμαχους
φροντ
συντηρητικο
ιατρικων
χαλκο
αποτελουνται
δικος
ρωσοι
κυνηγου
ξαναπα
cas
διπλης
image
ψηφισουν
ληστεια
ταξιδευ
υπηρετησε
beauty
υγιεις
##red
πληροφοριακο
αλουμινιο
ξυλινη
##ape
##κτες
δικαστικες
part
αλυσιδες
##λισμου
υγειονομικ
αποστολο
αγιασμο
συνθετικο
διαδοχο
nova
επισημανση
καμμενου
λιστες
μειναμε
εδεσσα
εικαστικο
μπανιου
μηχανων
καταφερουν
προστα
##ιουνται
ασβεστιο
ζυμαρικα
βιομηχανιες
story
στροφες
##bit
περικλη
##πνευ
πολυτελες
λιανικης
ειρηνικο
ρεσεψιον
ακρωτηρι
ρεμα
διεξαγονται
μαθω
care
συμμορφωσης
##ρχη
τριετια
##πανα
εκβιασμο
πρωτοβαθμια
##αμι
εαμ
νοτιοανατολικη
##bet
ερωτικα
επικο
αρτιο
σκελος
##εστ
start
ισοτιμια
επιγραφη
ιερη
υπαρχοντα
model
εργαζομενος
ενεργειακα
αποβλητα
εμφανιστουν
ινδο
εξειδικευμενη
ενημερωνονται
access
bot
kn
αποτροπη
καταχρηση
αναλυτε
ακεραιο
πυροσβεστικη
θαλασσιο
σημαντικους
δελτιου
δικαιουχων
πηγαιναν
παραβασεις
ωριμο
προστατευτικο
ισορροπημενη
##ιδρυ
ντουλαπα
σοσιαλδημοκρατ
υποστηρικτικ
##tec
αρβανιτ
sn
ανεξαρτητων
ανορθωση
##λιος
οικονομιες
##wer
##φορες
##bus
##λαμβαναν
##py
ποσειδωνα
παλαμα
προγραμματικη
ηλεκτρονι
κορδονι
δραματικα
χαρες
ποιησης
##μιλ
ενοχη
καλλυντικα
##φτη
νικησει
##ela
υφασματα
ευχαριστει
θυελλα
εφτανε
αγωνιστες
##ιωτες
εβδομαδω
##διδοντας
εντεκα
##blog
κατασκευαστης
ινσουλινη
μαθηματικη
κρυμμενο
οπαδων
φαμε
νομπελ
αντιδραστικ
γουρ
##rea
premium
tripadvisor
ali
κανατε
##ology
πλατωνα
##ποταμο
μηνιαιο
##σφαλι
καταλαβαινουν
κρατικες
λαγο
προσκυνημα
est
επιβαλλοντα
μπακογιαννη
εδαφιο
first
φρον
εξασκηση
ξεκουραση
107
εγκατασταθει
δικαιων
διαδηλωτες
αναγνωριζεται
φρουτο
χρυσος
βιβλιοπωλειο
δρομολογιο
συμφωνησε
1966
αδικα
νεφ
κυπρ
προχωρησαν
γρηγοροτερ
##δωσε
##λιτ
φετες
##ουλας
##ωμενου
σικελια
##σβη
##θυμια
γσεε
χωρητικοτητας
##rac
ανταγωνισμος
αντικειμενικο
τεινει
σεμιναριων
##τως
##κοπουλος
γαμπρο
αμπελο
αεροδρομιου
##stan
##στραφουν
head
ακουγοντα
στολες
ηλιουπολη
παρεμβ
##qua
ξεκινησαμε
αποκορυφωμα
κουμπ
συμπτωματων
στοματος
##πωλη
ιχνος
επαρκεια
αγαπας
διαφοροποι
hall
απαιτουμενο
διενεργ
γιαννακοπουλο
##θερ
καρεκλες
νατριο
εξακολουθησ
συναισθηματικα
ουγγρ
ιδρυσης
υπαγονται
1948
προωθησει
οριου
##νπλ
σημιτη
δενδρο
πληκτρα
βιωσιμο
domain
φορολογηση
βαλκανιων
αγγλ
περιμεναμε
δημιουργουμε
μαγνησιο
στελλα
χαρο
εκδικηση
διαδηλωσεις
μελλοντικο
οικιακη
ματαιο
υφισταμενων
βαθη
μοναχος
##χαρτ
κυκλων
σαμπουαν
διαγωνισμους
##εργε
##ολογιο
ελαστικοτητα
καθεμια
##ξιμο
νοτου
θρυλικο
gen
##mic
mat
βολε
ελβετικ
##qui
κυνηγα
κατεβει
αυξησε
πετυχουμε
λαβουμε
αντικαθιστα
καταφερα
εισφορα
γραφτει
κομμουνισμο
long
ευρυτερα
οποιεσδηποτε
κοβουμε
υφυπουργου
##can
συσσωρευση
δαπεδο
τρομοκρατη
τιθενται
αφηρημεν
πωλητη
χειμωνας
μηνυση
διοικητικες
τενις
##φελ
##υθυν
βιομηχανικο
υγιεινο
μειοψηφια
εξορυξη
νομισματος
καζαντζακη
ρητο
αιολικ
ουασινγκτον
ρευματα
kit
football
κατεστημενο
αντιμετωποι
μισους
παρεδωσε
αλιευ
ath
επικεντρωνεται
πλατειες
##πρ
φτιαξετε
υπογραφης
ηλιοβασιλεμα
αριστοτελη
καταφερουμε
υποκεινται
ιδιαιτεροτητες
σκοτωθηκαν
φλεγ
##φθει
card
##lm
διαδικτυακου
##ριζουμε
##ολυμπ
unesco
##κοβιτς
##λογειται
μεταφερονται
νομοσχεδιου
ευρε
ερασιτεχνικα
bl
γκρεμισ
μαλτα
σχολιαζει
υποστηριζοντας
##ηθω
##νθη
excel
##dos
##πελ
καταστατικου
λογοτεχνικο
βωμο
δημοσκοπηση
συγκεκριμενους
##δωρο
συνεβησαν
ντελ
σεβασμου
##ωτικα
νωπ
διαχωριζ
επελεξαν
##arch
ψευτο
μακροπροθεσμα
##κοσμι
ρουσ
κουραγιο
##bc
προετοιμαζ
##iff
γκαζι
σιταρι
αρμοδιας
αξονας
καταθεσεων
saint
τιτλοι
αδερφια
##κλισεις
ησυχα
πολιτιστικα
κεντρικος
διεργασιες
##ort
##στηκα
χλωρ
συγκρουσης
ιερωνυμο
ψυχαγωγιας
σουπας
πτερυγα
##θρη
κατεβαστε
φασιστες
ανεπτυξε
109
##δεχτουμε
εκδωσει
προσφερε
διευθετηση
κατοικουν
θηκες
αργια
##ory
αρτεμι
συνεταιρισμου
επιμορφωσης
##ωλ
υδατι
απομακρυνει
παραλογο
ολοκληρης
κυρα
συγκομιδη
δαχτυλο
κατεληξαν
γευ
ενηλικο
τυχεροι
θυμασαι
θρησκευτικα
note
φορωντας
μεταβλητη
βλεμματα
συνοχης
εμεινα
παρακολουθησε
##φαλ
φιλολογο
ημεδαπ
ταυτοποιηση
ταλαιπωρη
##bol
διακοπτ
##ιανος
καταγγελλει
λυθει
γνωστης
ζηλο
τζιρο
συμβολαια
στελνουν
βιασμο
συζηταμε
συνδυαζεται
σωματικης
συλλαβ
γεωργιαδης
ber
επιμορφωση
ανακαινισ
διδακτορικο
κεραμικ
κορυφαιους
καλοκαιρινο
στενοχωρ
τοπικους
προκαταβολη
τερας
##ντρε
καζα
διεθετε
μοντελων
##ret
αναγνωρισε
θεολογικη
τρομου
περιουσιακα
εμφανιστηκαν
κολομβια
εβραιων
##κουρ
ελλην
επικοινωνησει
##βερν
1961
ελια
φοβερη
##βικ
##στους
##kh
επεβαλε
οψιν
##lor
##λικ
μανδρα
σκοπου
επισκεπτεται
συνδια
αποστασεως
κατακορυφ
βοηθημα
##στελ
μοτερ
rs
ομολογη
ψυχραιμια
ανεκαθεν
λιμενικ
φορτιου
χοιρινο
##λλακτ
##πιστη
μπροστινο
παραρτηματος
χαλαρο
εγκληματικ
νυχτερινη
δυσλειτουργια
διδακτικο
ειδικευ
εξειδικευ
##λινγκ
βασ
ευθεως
σεισμος
επιλεγμενα
σκαφους
τοποθετει
ξεχασα
χτυπηματα
υποχρεωτικο
ποδο
δοσης
τσεχια
##μενε
##τοσ
εσπερινο
συνολα
##ζην
jazz
μεταναστευ
ευτυχη
ορισε
φροντιστηριο
σχοινι
αξιοποιωντας
τρομερο
ασθμα
εξαρ
ευαισθητη
##ανης
εξασφαλιζοντα
eur
σπιτικο
φονο
αφαιρει
εργαστηριων
εκδοτη
περιστατικων
στοχευουν
γουα
παγιδευ
γιογκα
##λεγε
ζητηματων
κατωθι
προφορικη
##ζελ
επιδειξει
φιλακια
μπαχ
δημογραφικ
ουδεμια
οικουμενικη
μηδενικη
εξουσιοδοτ
σπατα
εργολαβο
κορινθο
tab
χειροποιητα
##τιδης
βαθεια
##ουντ
ερευνητης
ακτινοβολιας
final
αποζημιωσεις
##sia
δημοπρατη
ιρλανδ
φυλαξη
διπλωματια
##βαρα
χωραφια
ραβδο
κιλων
ερωτ
ηλεκτρικες
εικονικη
##ound
καθοριστικη
##ew
ακουσετε
ραι
επιβραβευση
##hz
μητροπολιτικο
ατμ
πειθαρχια
πελε
##λιμ
στοιχειωδ
review
band
##avi
μηχανισμοι
διευκρινισε
μαιρη
χρησεων
σημειωσουμε
πυροσβεστικης
καρλ
##αυτη
γιατρου
μεταλλων
κοινωνικους
αξιοπρεπ
##dic
##γιαννακη
ελλη
εικ
ακατα
σιμο
τυχει
##γκε
διασυνδεση
ποιητες
##pharmacy
ασκησε
χορτο
συμβατο
παιρνεις
κοροιδευ
κωδικους
νομιζετε
υπερηφαν
μικροβια
ιδρωτα
αναγκαστικη
εκστρατειας
επιχειρηματικου
##ληφθηκε
δεξιας
εκτακτο
φωνης
##μενον
πορτ
##ij
jack
ταχυτητων
περιουσιακων
κουκλα
δημα
##μπρα
φορτιση
πλασματα
συνεπει
good
εκτο
##uit
πιστωτικη
εξαγωγων
προκαθορισμεν
προσεχη
σπιτιων
κρουαζιερα
οφειλε
προοδευ
ιατρων
κερδιζουν
ton
αποκλιση
γραψετε
εστιαζει
περιφερειακα
αναπληρωτων
τριτοβαθμια
ιτ
κατοικος
εφκα
ιερεας
ok
αναπηριας
##sy
επιβεβαιωσ
τρ
πρωιμη
δημητριακα
##polis
στιβου
αφορουσαν
ντιν
θεαματικ
οικολογικο
##quo
σκαλι
παραπερα
μνημονευ
αδη
επιτυχως
##πλασια
##εδρ
μαθεις
ενισχυσεις
just
epi
αντρεα
##μπρο
επισημαινοντας
file
παλαιστ
καλαμι
ψυχαγωγια
θρησκευτικες
αμπελι
συμφωνησαν
τιμιο
φυσικος
επανελθει
##δρ
##μπλ
##τακη
παγω
διλημμα
νεκταρ
εναλλακτικο
πραγματικης
στρατηγο
προτεινομενη
δυνατος
ξεχνατε
τραβηξε
βοηθητικο
εζησαν
##shop
συναισθηματικο
##town
εργασιακα
αιγυπτιακ
συλ
γεωπονος
συμβατικο
eye
χρωστα
αρνουνται
τσια
στερεων
ξενωνα
συσχετισμο
λογιστικο
εκδιδει
οφειλετη
βαρθολομαιο
γλα
αναθεσης
αιτωλ
συγγραφεων
οξεια
στηριξουν
ελεγχονται
esp
comment
##ated
##ιωσουμε
στολου
εμφυλιου
bor
film
καμπυλη
παρουσιαστουν
δικαιολογ
##βαλλουμε
1947
χριστιανος
πορτοφολι
συλληψεις
λιβαδι
νοσηλευτικ
περιστροφη
αρνηθει
αντιπα
θυμουνται
tea
καθεδρικο
αζ
##γενεση
σφαιρες
χαρουμενος
πασχει
κοριτσιων
χονδρικη
179
##πμ
κορες
μειωνοντας
ακουστικα
εχθροι
οχθη
λιστας
αρμοδιους
##ism
γιαννενα
##υλια
ισχυον
##ευσε
##κοινωνιων
αναμετρησεις
προβαλλεται
κουταλια
χαιρ
εφοπλιστ
ultra
ανηλικο
παροντα
island
ενημερωθειτε
κατσιφα
ρευστοτητας
spot
ποικιλες
##ντελ
##ποιο
πλανητης
ντοπιους
##ius
##rou
αθωο
τσακαλωτο
βιβλο
doc
uv
1946
##μειω
nor
κυνηγετικ
πυροσβεστικ
ορισει
ol
research
εκτελεσε
χαλκινο
uk
ακουστε
##γενων
πολυτιμα
abs
φορεσει
ψαχνω
σιτι
πτωμα
##vent
κυπ
προστιθεμενη
τοξικο
αυτ
αφοτου
##κατο
ποντου
τραβηξει
δημοψηφισματος
βραβευση
εστειλαν
εισε
επιτοκια
τουρκικων
##λιστικη
χρυσ
bus
περιγραφουν
καθετη
καμπου
1949
φοιτητη
concept
παραπονο
σοσιαλιστικη
καταστρεψει
ευγε
επιβιωσει
ελθει
πτωχευση
fun
##ual
πτυχιου
ελευση
καταδικαζ
land
κομματικη
χουντα
διαμετρου
ηπειρωτικη
διεκδικουν
επισκοπου
ερεθισμο
συνηθισμενη
λησμον
φορολογικα
απαλη
βοσνια
διαβαζουν
τρωγ
##ιστε
ακελ
##βεντ
ολυμπιακων
ευγενεια
exp
##ματη
kayak
αναμνηση
peter
update
εφορεια
ανταγωνιστικη
επανειλημμενα
προοριζονται
γκαλερι
##τεροι
μετρητα
υλοποιησει
##ργο
##βλε
##kk
##nie
ραφι
τσεπες
σατιρ
θεωρουσε
αποφοιτων
ανακαλυψαν
##μισι
μακε
καζαν
##λιθο
σερβις
##ζιν
ελλαδι
char
ππ
μπουφε
ηθοποιους
απελ
dec
φαξ
αδιαμφισβητητ
ιδιοκτητων
περιεργεια
σταματου
λεμονιου
πλοκη
εξωτερικους
ζωγραφος
ποινες
κλασικα
##tus
πλειστηριασμο
sil
ωραιες
διακοπης
ασταθεια
συμβολαιου
ντον
λιγοτερη
βιαιη
ψυχιατρικη
εταιρικη
περιπλαν
παντελης
απεργι
##δοθουν
σχισ
υπαρχον
προηλθε
##χορ
σερβιας
ψυχοθεραπεια
δημοφιλεις
συμβατικη
τρεχοντα
πουκαμισο
παιζουμε
απελπισια
προκειμενω
παγων
xbox
ψυχιατρ
honda
θεσμικα
επιβληθηκε
προηγειται
κομι
##γραφεται
##ρινες
γεννιεται
αγοραστη
##τιζονται
ανταρτες
βαρι
mag
υπολογιζονται
##κυλ
lim
σχηματιστηκ
γνωστων
διακριν
κατοχοι
λαμβαν
ευχαριστιες
αποσυνδε
βιωνουμε
φορτισης
επικαλειται
διδαξε
αντιο
##yr
προσωρινης
ηξεραν
στηλης
επενδυτικο
γενναιοδωρ
πλατφορμες
κεραμ
##ικον
μουσικος
μητροπολιτου
δικηγορο
ποσοτητας
##789
ευη
συζητα
φθηνο
στεναχωρ
κατασκηνωση
κυβερνα
##πεξ
καλεσει
πλυσιμο
θεματολογια
αεροπλανα
##θον
##gel
αντιπροσωπευουν
συζητηθει
συγχρονος
##ποιου
θαλασση
αγορασουν
μουρ
ακολουθουμε
καρι
αιγινα
απομεινει
##pen
ενεργειακων
σεμιναριου
εμπνε
ανοσοποιητικο
ιθαγενεια
διακινησης
135
ξεκιναμε
αθλητριες
ψηφιακες
οροφη
ρενα
δυσαρεστη
##λοτ
αμυντικο
ανασφαλιστ
διωξεις
μελινα
μπαμπας
παρακολουθουμε
classic
θεους
λυτρ
επιρροες
συζητησεων
μαγειρικη
πρισμα
ψυχικα
μοτιβο
##κουν
εορτης
##πνη
ζησουμε
σκεφτηκε
αντιπαλων
fil
σκοτωθηκε
εκτελεστικο
σκοπευει
εφεξης
ναυπλιου
##ville
πετυχαν
δρουν
παζαρι
##ζομενα
ανερχονται
αεροσκαφων
δολαριο
κρυσταλλο
##λεκτ
ρωτησει
δικοι
βενεζουελα
##bel
λεπτομερη
τρομερη
αντιπροεδρο
αποτελεσαν
τροφων
αναμενομενη
ξεφ
αγχους
αρχιεπισκοπου
μοναστηρια
ky
pass
στειλουν
ιεραποστολ
##γμενη
αδικηματα
συνδυασμους
ομοσπονδιακο
καθαριζει
ελαφρυνση
οφειλομεν
ποιητικο
##ουμενος
κοκκινου
non
καρλο
γκρα
στρο
κερδιζοντας
ευνοει
εκδοτικο
δηλωσουν
##νικος
περιποιησης
φερμουαρ
χαρισει
λημμα
παρισταν
ρυθμου
γαβριηλ
καστα
ευθυνων
##τουλα
μαρκοπουλο
καινοτομες
##ταση
βρισκομαι
πινει
##her
απεστειλε
##ουσαμε
αποδεικνυοντα
##λλι
blogger
νευρων
##συνα
προαστια
ασκησεων
##ob
ψηφοδελτιο
προσθετες
##πανο
εμβολιασμο
μειζον
σαφεις
##χωρα
ωδειο
νομιζει
##σικη
εορταζ
πιθανοτερο
σακο
##ello
σεξι
κυρωση
ενηλικα
κιτ
##αλεξανδρ
εξεταζεται
θετικων
υπομνημα
παραιτηθει
τριποντο
αναλογικη
μεταλλια
##χερ
rob
##θαρ
εντομο
##εβιτς
##ξιας
πλατων
##μονο
παραπομπη
ενισχυθει
φωτιστικα
εινε
ικανοποιητικη
ακτινες
παππους
geo
σκωτια
διπλανο
διοργανωθηκε
ερευνητικων
##ets
χθεσινο
ασφαλιστικου
κατερινης
##περισσοτερα
διαχειριστες
φεβρουαριος
stop
ανδρικη
porn
θεοδωρακης
δημοσκοπησεις
##mia
νεανικη
##θεισα
αποτομα
τερματισε
ηπιο
##ριζα
πιστολι
ιονιων
αιτιολογια
ραφια
114
κρισιμες
##κνη
μοχλο
οξυγονου
υιοθετησει
επισκοπο
υε
μερικων
διαχειριστης
πρεσβευ
μαρτυρων
185
ek
λατρευω
ελεγκτη
##λεξε
##παιδι
σκοπιμο
1958
απλοτητα
##bat
γηιν
καταλαβαινεις
τηλεοπτικες
πανεπιστημιακη
##rich
εγκατεστημεν
##ραμ
σκληρες
υστερο
σωθει
σωτηρα
στειλετε
θερμι
μπουλ
προδια
##aj
διδαξ
απεκτησαν
χρειαζεσαι
εγκατελειψε
προσελκυση
προχωρουν
##μιες
τιμολογιο
παραγωγικο
χαλκιδα
δικαιοδοσια
ξεκουραστ
##ληψη
χαρουμενη
south
στι
παθει
εκτελουν
αρχας
##φωτογραφ
##ιστορ
παραπονα
μαξιλαρι
τσαλ
εκτεινεται
κυκλοι
θεοι
κοκτειλ
οδυνηρ
προγραμματιστει
επει
tro
σπορους
uefa
##νεια
θεολογια
ανικανο
nasa
πονους
χειρος
απελευθερωσης
συνανθρωπο
χαρτιου
μπαρα
αφης
επεξεργασμεν
αποφοιτησε
γαλλοι
γνωρισα
ξεχωριστες
καταστησει
ηθικα
φωναξε
λιμανιου
χαρης
νησου
εξυγιανση
καλοκαιρινες
διαμετρο
##ζηε
διαφημισης
βασικοι
θεοδωρακη
κτισμα
ανοιχτου
γερμανικες
παιρνετε
low
τερματισ
χλωριδα
δυσαρεσκεια
πρακτορες
πωλουνται
##τιμα
1936
συνιστουσα
##δημοτες
κιμ
ενημερωθουν
##μβρι
ρωμαικη
καταβληθει
διεξαγ
γαι
εξαρτωνται
καρυδια
προφυλαξη
συνομιλ
μακρη
στοχαστρο
pack
##ware
##pos
##ευσης
εσπασε
κομμουνιστες
τσιρ
##διπλω
αναβαθμισης
ομοσπονδιακη
ψευδη
##ειδες
εξαρτ
συσχετιση
απολογισμος
ζουμ
επικρατουν
πατημα
χαραξη
τεχνολογικη
φερε
ημερησιως
ανοσο
εξευρεση
##τορες
εξελιχθηκε
αποδωσει
απερριψε
δημοσιευσης
σημαιες
bel
καθιστικο
αρχαιολογικη
##app
γιαννινα
πληθυσμων
ισοτιμ
επικουρικ
κολυμβητ
απωτερο
μειωσε
εκδοτης
παχους
γοητευ
απειλουν
αξιζε
χαλκι
##βορ
θεωρηθηκε
υλικη
αριστερου
θωμας
πολεμικου
συμβιωση
σκυλων
κρατικα
αγνοησ
κομοτηνης
γονατα
διατεθει
αυτοματισμους
αργησε
ξεπερασ
παραμικρο
παρεξηγ
gb
τρομοκρατικη
κορυφαιος
##λαβου
λεοντ
κολοκοτρωνη
στοιχειωδη
##cus
χερσονησο
καταρχας
ανεδειξε
καταιγιδα
##χελ
##συλλογικων
software
χαραλαμπος
επενδυτη
##pm
περιττο
ανοιχτες
συνεργαστου
προβαινει
χαλκ
εξερευνηση
ευγνωμοσυνη
ανανεωσης
##ρδα
γκολφ
συνθετες
διαδηλωση
stand
εβραιους
αεροδρομια
φρονημα
touch
τονιζεται
επιδρα
μπω
αναστασιος
θαλαμο
εμενε
πανοραμικη
πεταξει
##τωρ
μεμονωμενα
υποφερουν
διαιτητης
δημοτικος
απογνωση
1962
##til
ανακουφισ
##uch
επιθετικοτητα
περιορισμοι
κατασκευαστει
ψυχολογικο
##ιτσες
λεοντα
##λιτη
εφημεριδων
διαμ
##κρατιας
κινεζ
λουλουδιων
must
σχηματισμου
αορατο
ορθοδοξων
τηλεοπτικα
cloud
αστικες
λιβερπουλ
τραυματα
λεξης
##πτωση
αυτοκρατορας
ομαλο
μεταδιδει
δεκαλεπτο
συμβ
επισκευης
##λυθουν
ελεγκτικ
κονσολα
παζλ
κηρυγμα
στηριγμα
ορεινα
κορεας
2310
##χειρουργο
ενστασεις
τπε
δασικη
##θεσουμε
γαλαξια
φωτης
πηγαδι
παση
##zu
παρατηρητηριο
##iva
ζεις
φατε
περιβαλλοντικο
μικροφωνο
ακτ
ασπιδα
γκαλ
εξασφαλισουν
αιτιο
μοιραστει
##ux
εκπαιδευτη
φωτιζ
περιστεριου
upload
παραλλαγε
##λαβο
##τουσα
δευα
μαργαριτα
μιχαλ
παραγγελ
κατακτησ
κεντρικες
αυξανοντας
απηχηση
##κρισεις
εναλλαγη
north
mr
δυναμικοτητα
αφηνε
αρχιεπισκοπ
ισπανικα
κερδισαν
δακτυλιο
##led
συλλογικες
επεκτειν
τηρουν
ιταλος
##τινης
θεραπευτικες
##χαμ
χαθηκαν
φαρμακοποιο
φωτιστικο
κατανοησουν
μισθος
υγιες
χαλκου
δημοσιονομικη
υβρι
προνοια
hardcore
δημητρ
μπακα
##light
##φιε
μηχανικης
##ριστα
εντοπισε
##κρινο
δωδεκανησου
τηλεφωνικο
δεκαετι
μεταποιηση
βεβαιος
ενιωθα
εκμεταλλευτει
πλαισι
εγκυκλιος
##λικες
χιονο
χρυσοστομος
δουλ
ανηλθε
υπερηφανεια
ευαγγελισμο
int
##cs
εικονιδιο
συνεν
##ρρυθμ
επιδοματος
##ηλθαν
ενισχυεται
φαινομενικα
αντικειμενικα
ανοικτου
ελπιζει
παραχωρησει
εθνικισμο
κατατεθηκε
πατριαρχειου
ακροατηριο
##τριχ
διαρκης
επηρεασουν
##στασιο
οικουμενικου
δημοσιευει
ραφηνα
##γκρι
αναπτ
##uz
##ii
κηφισια
##rum
καδ
υπολογιζει
##μορφο
ανακοινωσαν
ρευστο
london
περιγραμμα
πρωτοτυπα
παπαδακη
κυριαρχουν
μελισσα
διατηρουνται
##ζεηο
υπαγορευ
##tia
επανερχεται
γεωπολιτικ
##βουρ
πολυαριθμ
μανωλη
τυποποιημεν
##ρτα
εντερο
δημοσιευεται
καλαμποκι
κυριων
##ht
##ego
αναμφισβητητα
ενδιαμεση
φωτογραφιζ
##ove
ρωσος
νομιμοτητα
##ομι
συμβουλευτικης
117
περιμενοντας
στεκ
διαγωνιζομεν
γεματος
υπολειμματα
##eth
παλιας
αξιωματικοι
##rie
τερματα
χωριων
προοριζεται
δυστυχια
προσδοκ
##μαχια
απροσμεν
θαλασσιων
σεληνης
δημητριο
κατοικει
βασιλειας
kon
##κελα
νικολας
##ges
rose
μητρικο
καθυστερημεν
ερασιτεχνικο
add
παθητικο
επιτακτικη
βενζινη
συμποσιο
σπυρου
ρουμαν
γραπτα
περιεργη
μπρος
εμπειρικ
αμερικανικω
θεωρησε
καλι
επιχειρηματικες
have
προωθουν
εισηγ
λουτρο
previous
πτυχη
γλωσσικη
ζαχαρο
δημοσιευσει
ασχημη
κινητικοτητας
υπνοδωματιο
υποχρεουνται
αλλοδαπο
##ντορ
ποε
βρεφη
γραφεται
ψαλιδι
εξεταζονται
ιδιαιτεροτητα
καταγγελλ
δραστης
αγοραζει
##πηρε
##χιο
280
##ular
ελεγχομενη
μαρτη
πεδ
ακροπολης
ροδα
αρρωστια
κολλεγιο
ανατομικ
λουλουδι
σωματικο
μειωσουν
αεροπορικες
##kan
##ενια
μπερν
##βληθηκε
καμαρι
βαρβαρο
στεγαστικ
ιρ
προλογο
αξιωματουχοι
ψωνια
απεργιας
ουδετερο
1959
αποκαλουμε
απεριοριστη
γραφεις
νοιαζει
##stein
##sl
##λαβη
συστηνε
σκευη
πινακων
προπονησης
##εψει
υιοθετησ
οδυσσεας
ωραριου
αναζητει
αρειου
κτελ
##θμ
βαι
στανταρ
φυτου
κηδεμονων
how
κασετ
αισθητικο
##van
##ram
κινητηρας
αποφευγει
θηλασμο
κεφαλα
υποδεχ
ενθαρρυνει
cs
αεροπορικα
θεματικες
ατρομητο
διαμορφωσει
ταγμα
υποχωρησει
εγκυρη
εγκειται
ανακαλυπτει
ιερων
ιονιου
συγγενη
υπεβαλε
κονγκ
εορτασμου
ελαχιστοι
χειροποιητο
ξεπ
επιπλο
1956
μετατρεπει
μισθωτη
βασικου
αξιωματικης
πολυεθνικ
ωφελιμ
μακεδονες
##φτα
mix
ανακαλυψα
ψυχικο
μπουμε
##ετιας
##μηχα
καπα
μιλας
##λαβαν
##πιων
ελευθεριου
##ym
αντωνια
σεβασμιωτατος
αντιμετωπο
##υρια
επιτευγματα
##γονων
πλησιαζου
καμπινα
ειδωλο
σκεφτεσαι
εφαρμοστε
βασεων
temp
βαδισ
ψυχολογος
στρατιωτικα
ντειβιντ
συντονιστ
αντιπαρ
κινητη
πονηρο
βιετναμ
θεσμικη
ουρανια
##uri
ηθοποιο
πορο
μεριδες
συλληφθει
δημοσιονομικο
##met
ντοματες
καταπιεση
απανω
ανασυγκροτηση
ρυθμιζει
rom
ρωσικα
τριχες
##bil
reuters
διδασκαλο
##xe
##υξη
επιμενουν
##τραβ
κρυβουν
συναγερμος
διασφαλισει
πολεμησε
τεινουν
συνταγματικο
εναρμονιση
σαλατε
λιτρο
λαμπερο
καταθεσουν
αλεξανδρεια
ερωτηματολογιο
λυπαμαι
επανελαβε
χορεψ
ανεβασει
##yan
ορκο
φουσκ
αργος
μυαλα
μαθητριες
αντιπαλου
εκανες
συνδικαλιστικο
αναρωτιεμαι
drive
ειδικευση
επικρατησει
ιππ
εξουσιοδοτημενο
att
δικαστικων
οπαδο
εταιροι
los
##δεχεται
παντελη
ενταχθηκε
χατζ
650
υφαντ
επιχειρησιακη
προστεθηκε
τσιγαρα
πριγκιπισσα
καλυφθει
αυτοκρατορ
εσπερι
ακρων
μειωνονται
εκπο
σωματικα
υπογραφες
ξημερω
τυχερ
κοινοβουλευτικο
δακτυλο
παγκ
πολεμι
τηρουνται
συνεβαλε
products
εξηντα
συνομοσπονδια
ματθαιο
κουμπια
συνδεδεμενη
αναβα
θορυβου
γυρισματα
αποτρεψει
σινα
145
αποφοιτοι
προισταμενο
θαυμασιο
τζαν
πανεπιστημιακ
##παραγωγη
τροικας
πλουσιες
καμμενο
αττικο
μητρο
νευρικ
γκορ
hair
ολοκληρωμενες
επομενου
χρεωσεις
σαφ
##lay
στεργιο
μεγαλωνουν
επιλυ
πορτας
αειμνηστο
μισθοδοσια
ουδε
φροντιζουν
δημοπρασια
αντεξει
υπαιθρο
προσπαθηστε
αγαπημενους
##λημ
συνεντευξης
ελισαβετ
ακροδεξιο
##γενους
στασης
ευαγγελι
ξεσπασμα
politis
δουλευε
βουδ
μικροοργανισμ
αιμορραγια
κατανοησουμε
κομματικο
στρατηγικων
συμφεροντος
111
εργατη
συντελεσ
διεκ
προεδρειο
αξιολογει
ραχ
ντορα
εδα
αφμ
εξαφανιστει
ανεξελεγκτ
υποφερει
σιδηροδρομο
##xx
διδαξει
αθληματα
κουταλιες
σωληνες
τεκμηριωση
πνευματικων
##θρ
μπομπ
πρωταγωνιστης
kat
προθυμο
##φυλαξ
αγροτη
περιπολι
νιωθετε
κονδυλ
προφητη
##ωτου
σπαταλη
βιωσει
διακριτικη
λιγακι
##isi
##αααα
δικαστηριων
τελικως
διεκδικη
οξεος
τραγ
κυριοτερ
ακριβειας
##κεφαλο
αγανακτηση
ψηφιστηκε
χονδρο
πρεβεζα
##φιλη
dream
χωριστα
τιμολογια
οριστηκε
πλουτος
συμφωνου
βουλα
αγωνιστικα
δημοσιονομικης
μυες
τειχος
αγωνισ
συναγερμου
υπευθυνου
διεξαχθουν
σπανιες
καταφερνουν
τονιζουν
μνη
στυλο
προκηρυξης
συρρικνωση
βγουμε
intel
βαλβιδα
δεντρων
ικανος
lt
ισχυρων
##αρχη
κοιμηθει
αθλητισμος
προστατευσει
φτια
συμπληρωνουν
τεχνολογικα
εισερχεται
πεταει
##δοσια
φωτογραφος
χωραφι
κρατηστε
καθολ
##hu
συμβολιζει
επαρκει
ασο
πατησε
##ible
ομολογο
##bre
φατ
παιζεται
τουτοις
comments
διατηρησουν
χαρακτηρων
διοικ
##νισμου
μεινουμε
γραπτως
κυβερνητικων
##ριζουν
δωσε
γεναρη
καμβα
usd
πριγκιπας
τεκμηριων
αλλεργικ
εξετασουμε
κυκλοφορησαν
##συμπληρω
##ike
πλαγιες
αδυναμιας
##πινα
ταυτιζεται
##λυκ
κυβερνητης
ολοκληρες
περιγραψει
##νατο
σοσιαλισμο
χριστοδουλ
πλευρων
μουσικοι
1957
ισχυρος
##ηλεκτρ
sd
διερευν
##rna
αμερικανου
ομωνυμη
εργοστασιου
συνοπτικα
##lou
sand
βοιωτιας
γοργο
πιστεψει
αιωνας
μοριο
νοητικη
πρωταρχικο
##ισσες
ικανοποιησει
##ship
αρμοδιου
αιγυπτιο
λιπαντικ
παραγωγο
εντυπωσιακες
παραδοθει
δειξουμε
κοιταζει
δινετε
βαζεις
well
σχολιαστε
καταστροφικο
σαντα
λιπαρ
παντρευτει
διαφανη
αμυ
φταινε
αιμοδοσια
##γραφα
##ban
προσεξτε
cream
πλειστον
ξεπουλ
αδιαβροχο
turbo
τσαγιου
εγκατα
προβληματικη
πανσεληνο
αμερικανικα
κατεστραμμεν
ποδηλασια
ηλεκτρομαγνητικ
##μνημον
νοτα
λυσσα
##fl
εγωισμο
βομβαρδισμο
ιδιωτη
εκδηλωνεται
ισπανικο
ρομπ
εγραφα
γεματες
χρησιμοποιησαν
στραβα
οδηγηθει
υποκειμενικ
πυρο
εσωρουχα
##χτες
##τσερ
##βασι
##φαγο
οδυσσεα
μεσαιων
επιτιμο
φυλακιση
συντακτης
πολυμερ
φορεσε
our
qui
bull
υπνος
σωτηρης
##ωσεως
καταγραφουν
γηπεδουχοι
θεοδωρα
συνηθε
εμβελειας
##τισαν
διηγημα
μουτρα
μεθοδικ
σκοτωνει
ακαθαριστ
εκλεισαν
αντισυνταγματικ
##καλο
κατωτατο
##ισμενα
αναμορφωση
μπορεσαν
λαμβανετε
διαδηλω
##καπιταλιστ
ταξιδιωτες
##αινει
στελεχωση
οριζοντιο
αποδιδουν
καταστολης
συνεδριασεις
βολευ
##κελε
μεταπτυχιακου
κιμα
##πξ
γρηγοριου
λεξιλογιο
ιταλο
συγκρουσεων
νοειται
οοσα
καλω
φιλοσοφος
γερμανικων
συνελευσει
ομηρ
αξιοποιει
πινακοθηκη
πετσετα
ασσο
δωρων
κονδυλιων
στοιβα
μοιραζεται
ενσωματ
εβδομαδιαια
κομοτηνη
ιερος
δασικο
χρησιμοτητα
αναζητησε
επισκεπτ
μαζικες
##τελεσματικοτητας
βαρα
χτισμενο
οθωμανικη
κλι
##ρμαν
##ετι
μαγειρικης
##als
καυσης
εξοχη
##ελλο
συνασπισμο
##μπεκ
εκθεσεων
ορθοπεδικ
dol
αγνωστος
ανθρωπιστικ
περιστασιακ
μεταλλικη
παρακολουθησ
αμμου
ανηφορ
##δειξεων
##del
##chen
golden
περιελαμβανε
##itch
αδελφων
παιδαγωγικη
καλιο
ακαδημαικου
επς
μοιραια
program
ευρωπαιο
τελετουργι
δροσια
δασικων
ταχυδρομειο
καλτσες
gaming
προσεξε
ναυαγιο
υπαγεται
αγοραζουν
##πατρ
##ληφθουν
συγκλονιστικο
παραλλαγη
παφου
τρυπε
πεκινο
παρεμειναν
συναρπαστικη
χερσονησου
δικου
βυζαντιο
##nz
##ρροια
επανορθω
υποθεσουμε
στρατιωτικους
μπαζ
κληρονομο
σκατα
κλιμακωση
##οπα
##aka
##ose
αποθηκευτικο
αλβανο
ref
αναγκασε
δημιουργικα
φορμουλα
προιστορικ
τοκετο
βολη
βιωσιμης
μητρ
edition
θετοντας
χορηγια
##στυ
εβλεπαν
αναφεροντας
κεμαλ
πρυτανη
κολλαγονο
αρχιτεκτονικο
οικογενειακες
εστιαση
γιορταζει
παψει
κανενο
##τατου
##κτω
επικοινωνουν
ευλογο
παλαιστινη
γουστο
συνεδρι
ανωτατου
##mas
1923
επιθυμητη
χρησιμευ
αναγκαζ
let
φαληρο
καναλιων
δραχμη
προβλεπομενη
ακουσουμε
επαναστατη
##σικα
##βαλει
επικυρωση
ικαρια
##inger
επιβατη
##εσι
##τορα
γνωστοποιηση
##ick
στουρναρα
σπονδυλικη
εβε
παλαιας
κατασκευαζονται
οδικου
απετυχε
κοκκινες
αποτυπωση
πολεμικες
tou
χαζο
##nea
##post
σιτιση
##κολ
υφισταμενη
αποδειχτηκε
##bert
##ρεντ
εκατον
##αμενουμε
dark
σεντρα
##σιε
##ουρια
company
αφεντ
custom
αποφασισουν
φερνοντας
##df
##λικου
εξαρχης
καθαρες
ητο
##εστατο
ενημερωσουμε
γιουβεντους
ωριμανση
αποδεχθει
φοβους
αγροτικα
##εργο
προειδοποιησει
στρεφεται
λεπτες
τραυματιστηκε
ικανοτητων
συναφ
##σκεπ
επιπλοκες
καθοδο
space
πεποιθησεις
ρωμα
ισλαμικο
εκφυλισ
εσπευσε
##ειδους
οδον
βελτιωσουν
κλεισετε
##ρηνη
λιμνες
acc
αεροπορια
επιβεβαιωνουν
code
##στηρ
εισελθει
αιφνιδια
υπουργειων
poly
αγροκτημα
σωματικου
περιβαλλοντικα
who
τρωτε
τεχνολογικης
##συστημα
awards
απαλλαγει
καλυμνο
ωραιοτερ
mus
jpg
εκτακτ
συχνοτερα
μπειτε
απολυτηριο
κρυωσει
αναρτησε
μετεφεραν
κινηματογραφικο
wikipedia
επιθυμουμε
act
γραφειοκρατικ
μαξιμ
καλυτερης
στεφανο
αλβανικη
ανανεωσιμ
φορουσε
εργοδοτικ
παλευει
##φοβια
sec
νομισματικο
##οειδη
ευθυνονται
##συνεννοη
##κακια
ολοκληρωτικα
γρηγοριος
μασκε
μεταφερθηκαν
##μετρηση
προεδριας
κληρ
οικοδομημα
direct
συνολικος
βοσκο
προσχολικης
παιχτες
κομμουνιστικη
καλπες
κολεγιο
##ραιο
gif
##fu
ηγουμενο
φιλολογιας
##tur
ελεφαντ
ενδιαμεσ
αγορασα
renault
αναφερομαι
συνδυασμου
φορμες
επιτευγμα
ξεσπα
κρισιμα
τσιπ
fire
σχηματιζουν
αρκουν
##στατες
σκεφτουμε
πανελλαδικες
περιοριζει
στρατηγικου
##zz
τουρτα
υποδηλωνει
τοποθετηθηκε
δημοσιοποιηση
αμοιβαιο
##κειο
λαζαρ
μπανια
σημειωθηκαν
καβα
μαριος
γυμν
αφισα
μπονους
ισι
χρονολογειται
γιουνκερ
μικτη
εσκα
κλ
χαλαρωσ
δαμασκην
θυμηθειτε
υψηλοτερες
ds
marc
τρεχον
##συνε
χαλαρη
ινων
χρησιμοποιησα
πολεμικης
category
φτιαξω
##bor
μητρα
amp
εγραψαν
θαλασσες
##ξιες
πληροι
επειγουσα
λιτοτητα
##εστερα
##κοσμη
χριστοδουλου
##λυβ
εποπτειας
προωρη
##ψευδ
ενδιαφερομενων
σπαει
ελεγξτε
πετυχουν
##παιδα
σπαθι
αποφευγουν
κλεψ
ενεργητικου
##μαχου
μικη
σχεδιασμενη
παιδαγωγικης
πολεμων
δημιουργο
κοινωνικος
αδελφε
μπαμπη
186
λεβητα
τζιαι
καλλιθεας
daily
χορογραφ
παρουσιαστρια
εξειδικευμενες
116
συνηγορο
ψηφων
##θεση
χορους
παλλα
αισθανθει
εσπευσαν
ιωαν
##μοιρα
##ουσιν
εμμεση
φυλακων
shirt
vs
##αμινη
συνεργαστηκε
ασυρματη
εθελοντικ
ασφαλους
ημερομηνιας
νομιμοτητας
fin
φλω
πινακιδα
ερχ
σταθεροποιηση
μυθους
ξεπουλημα
αναγνωρισμεν
ταλαντουχο
υλων
προσφατω
##βιων
list
κραταμε
αρετες
αναγενν
τραπεζαρια
ψυξη
αντιστροφα
αποφοιτος
παροδικ
κακοβουλ
κεφαλο
##δοχο
##ging
γνωστοποιησε
εικονικο
υδραυλικο
μαρτυρα
καλυφθουν
##γνη
αφησετε
ανασκαφε
##λλε
##cp
επιχειρηματιων
δηλωσ
ησυχη
ανοδικη
προτεινα
προσεκτικοι
ωχ
πληθους
εβραικη
ψηνουμε
κερδιζετε
fast
##πωλειο
στρεμματων
τουριστων
γεωλογικ
συνεργατικ
χημειας
ευθειας
ολυμπιαδα
μονω
εγγυησης
ολοκληρων
εκκλησακι
οριζομενα
σχεδιαστηκε
προσαρμοζ
##rate
εγγεγραμμεν
συμβολικη
ρεαλισμο
##δινη
trend
siemens
ειλαη
αψογα
ψηφιακου
##λιδου
προυποθεσεων
##αρχοντες
##late
ταυτισ
ανανεωσε
gy
ιταλοι
ανοδου
arc
##eri
παραδοσιακης
πατρικ
##ειδων
λογης
μετεβη
events
pal
ελλα
aqua
soft
φοιτητικο
οροφης
γερουσια
κιθαριστ
villa
din
τροφοδοσιας
διαχειριστικη
εμπνευσης
αντικατασταθηκε
κατοχο
κοτσι
τηλεοπτικου
πληροφ
χρησεως
φουλ
αδυνατει
ακουσουν
διαμορφωμενο
επενδυτων
παγωμενο
##κρατικη
λεπ
ανασκοπηση
εγγραφως
##room
div
επιβεβαιωνεται
θυγατρικη
υποκρισια
ληξει
γεωργα
frank
mill
συνεχιζε
##graph
##mus
υγρασιας
αυταρχικ
αντιπαλοι
μαγειρεμα
πλημμυρες
##ματικο
clip
μαζες
αποστολεων
νεκρη
ray
σωματιδια
##κωστα
##ψυ
has
##τινγκ
αυτισμο
συζητησει
##dis
συμπαθη
##τρικο
flor
διασφαλιστει
ωμους
δραστικα
αμαρουσιου
αλκ
ein
διανομε
παρακολουθησετε
μαστιγ
1200
##μπιν
μιτ
χρηματικη
φουρνου
σκεφτομαστε
λογιστικη
πειθ
απλοι
επιστ
μνημονιακ
εντολων
hop
κατασκευασμενη
σηματων
κυβερνητικα
ημισυ
κηπους
καθαροτητα
συντονιστης
ποτηρια
αργυρη
καψα
παρκ
συμεων
ηττηθηκε
οπλισμο
κανονισμων
μαιντανο
συνεχιστε
χαρισμα
ταξικο
εκτελουνται
δωσεις
τυρια
##alia
προαυλιο
εκτοπισ
στελνοντας
καπετανιο
ανατρεπτικ
φακος
σεραφειμ
κεραια
watt
εξυπηρετησει
ετι
κορεσμο
διασημος
trailer
##γραμματ
##eck
εμπε
πιστωτικο
προστατευομεν
ζητησα
παρατηρουνται
εισηγησεις
ερυθρολευκο
χανονται
##poli
ενημερωθηκε
ενδυση
ομολογου
συνεχισω
ζωτικης
boy
##γραψα
##esta
##ναγκα
οικολογια
ελληνοτουρκικ
ζευγος
υιου
επωφελη
##τονια
τρεχουσες
στεγαζεται
3852
κρισεων
δυνανται
ωρι
εμβολιο
παλαιοτερη
πυλωνα
φοιτητικη
παρατηρησει
τιμηθηκε
αποκαλυπτουν
προισταμενου
κοιν
ger
σαββας
σητεια
σουρ
##gre
see
στρατιωτων
παρατηρησα
##0000
cro
##eur
νησιωτικη
γυρος
ανυπομον
μαρινακη
αρχαιους
ευγενικη
μαρκες
θεωρησα
διαχωρισμο
φρουρο
εβραιο
αναπτυχθουν
##ποιητη
##isa
φανταζει
χειμερινο
##ωσιν
ομηρου
εμπεριεχει
δολοφονιας
ευχερεια
μαχητες
113
ελαττω
αρκουδα
εμφανη
προσκυνητ
κυστη
φιν
καθισε
διαπιστωσαν
ταξινομ
λιρες
ενδυναμω
θαλασσινα
μιλησαν
ισχυροτερο
αρμονικα
meta
3000
κερασ
προσδοκια
##ira
report
γεφυρες
εξαιρουνται
γεμιση
εντοπιζεται
κλαση
λιμενικο
hellenic
πεζοδρομο
αριστουργημα
τζεν
σταφυλι
κουτσου
##pin
ken
##oma
επιθεσεων
προσεγμεν
λυρα
καταλαβαινετε
φωτιες
αντιδρουν
τακουνι
κοκο
ξανθ
καραγιαννη
εντομα
παρεχομενων
αποκριση
ψευτ
ζπλ
αναλαμβανουμε
##ρμη
βυρωνα
about
κακουργημα
επισκευασ
##συλ
αυξησ
καρτερ
κοσμημα
απουσιας
##via
##hol
θεωρουσαν
αυλαια
συντροφοι
1953
ιερεα
ανθεκτικοτητα
σκουρα
σταματαει
κολυμβησης
##odo
εμφανισε
ανεπαρκη
##αλλο
τολμα
γειτονικ
επιτρεψουν
αντζελες
187
χωριζει
λευτερης
κυκλαδες
συνδυασμεν
διευκρινισεις
ελαστικων
προνομιο
χειρουργος
προσοντων
περσε
1914
τροποποιησης
πανελλαδικ
##πλανητες
##mat
ειρηνικη
ιμπεριαλισμο
τεχνολογος
##σθηκαν
συζητουν
υπαρχουσες
κολοσσο
αποδυναμω
κολλησει
εργατικων
καταστρεφει
##χτι
υποστρωμα
επιβλαβ
ειλικρινης
χιονοδρομικο
φαρμακεια
κτηνοτροφικ
νομιμου
αμετρητ
επισκοπηση
μεταρρυθμιστ
nissan
δευτεροβαθμια
διευρυμεν
συμβαλουν
καταγραψει
πρωταγωνιστικο
πηγαινετε
θρησκειες
ξενης
προτυπου
ηφαιστ
ακουστει
πρωταθλητες
neo
κατηφορ
##σμω
παρηγορ
οικογενειακης
νερων
εκπροσωπουν
αντιπροεδρου
λος
σεβονται
αντιληψης
μιζε
βλαντιμιρ
ραχη
ενοικιο
θερ
αποσπασει
λοιμωξεις
ετοιμες
απαγορευμεν
type
συνδυαζοντας
##τεμ
υπευθυνα
προσοψη
ριξτε
##δορο
dance
θαλασσινο
πολιτισμικο
##ska
##παθεις
##μιτ
τριμηνου
119
βιολογια
αρκετων
pla
##ιακου
##μηνα
novartis
εντυπου
επιστημονας
επισημαινουν
erasmus
ιαματικ
συνταξιουχο
αναμενομεν
προση
##key
##ριτσα
##sky
αντεπιθεση
υποδιευθυνση
βοηθωντας
μεσσηνη
αθη
κρυβονται
##serv
μορφο
απομενει
επεκταθει
συντασσ
επισκευες
προημιτελικ
μανο
##φθη
τοποθετηθουν
ανακαλυψετε
επεστρεψαν
συνεδριων
προσδιοριζεται
ατυχηματος
σκοραρει
περιεγραψε
λαογραφικο
τρεξει
##ust
λεωφορειων
παλιν
αναλυει
ψαριων
1918
βελιγραδι
σωκρατη
εγγεγραμμενοι
διευθυνσεω
εξαπολυ
##ροφη
κατοικο
##ese
κινεζικο
υποσχεθηκε
αμυντικος
εισερχομεν
σαλο
##ele
φασματο
γενετικο
εισαγγελικ
κακος
##ντινα
tim
αντιμετωπιζοντα
υπερασπιζ
πιει
ραβ
πατηρ
τροπαιο
χριστοφορ
επαναλαμβανεται
πρακτορα
κινηματογραφος
πραξει
τριτον
ανακοινωνεται
επενδυτικων
##νησια
αγνοουν
τζιμ
fair
καψουλ
συμφερει
αμπα
##συσπειρω
τετραδιο
αμφιβολιες
παρατεταμενη
τοξοτη
σημειωσει
##δοτου
συνταξιοδοτησης
κατοχικ
1929
polit
διανυ
επιλεκτ
δεινα
διαφυγη
απολαυσαμε
ικε
##ινπ
security
αποτυπωνεται
##πιστω
##νομαστε
175
λυκ
μονιμων
οδικης
##ντζι
μουσουλμανοι
επισκεφτηκα
στηλες
##sb
ασβεστιου
εφεση
##itz
##γραφω
item
##wood
τριες
##νιδου
##σζε
follow
λινα
συλληψης
1939
νυφ
προσαρμοζεται
ελευθερους
##001
θεωρειτε
βαλιτσα
ελληνισμο
λαρνακας
εκλογικου
δραστη
πρωτοποριακο
##tte
##μελης
υποδηματ
μηλα
σκιες
τουριστικες
διωξ
προειδοποιει
κρατι
εβρ
μαυρης
ανακαλυφθηκε
vw
κακαο
χασι
##γραφικα
στρατηγου
##olo
διαστημικο
way
##ott
ντοπιοι
##tern
αποφασιστικα
##νησ
αναπνε
προληπτικη
οικονομικος
καθονται
μαγνητικο
ημοκρατια
ανεμος
πανιωνιος
ποταμος
δεικτων
κρεβατοκαμαρα
αιτηματων
αιματηρ
εμπνευσμενο
##ουλια
επιβραδυν
κατανοησης
mit
συνοδευομενο
made
βραχιολι
εκοψε
##λοχ
μεραρχια
##kes
οδοντιατρο
λιγων
λασιθιου
συλλογικα
φροντιστηρια
απαραιτητων
ευαισθητα
ρωμ
##ιανο
συνωμοσια
επιβραβευ
κουβαλα
βραχια
##ister
ροδος
lip
παρασκηνιο
ελκυσ
συντονισμος
βερνικι
πληρωσε
απολαυσεις
ρολογια
χασαμε
κυτταριτιδα
γαλλικου
ρυπανσης
πεισουν
εξωστρεφεια
##βαλλεται
γεννηθηκαν
##σπι
τσαμπιονς
ψηφοφορους
πεζοδρομιο
βγαλουμε
##pr
##γικη
cia
εκπεμπει
τομας
screen
καναλιου
γεωγραφια
φερουμε
αναδρομη
σκοπιμοτητα
hy
διαμορφωνου
ευπροσδεκτ
καλλυντικ
ντουλαπι
κουρασμενο
εξασφαλιστει
αποφοιτου
πομ
##ιωτισσα
παιζω
##ante
ψαλμ
τριβη
νοσηματων
οριακα
##ming
##κκ
αξιωματικος
##γκολ
αναφερθηκαν
συμμαχοι
υπογραμμισ
##μετ
μελετησει
σφαγε
πασχαλιν
ορθοδοξο
ποσιμο
λατ
χειρουργειο
εμπλεκομεν
βικτωρια
ποθο
φυτευ
διορισμου
##κτων
cons
vid
κατεχομεν
πιπερια
αριστοτελειο
τελικες
δυτικων
θεατρα
σημαντικοτερη
προσκεκλημενο
αναδειχθει
χρο
καγκελα
φορμας
αμαρτωλο
συντ
εορτ
μελισσες
αξιοποιησει
βιομηχανικων
##gra
συνοδευτικ
εξειδικευμενα
##une
επεμβασης
εκτη
αποφυγουν
εμψυχ
εισβολε
τετραγων
λαρ
αυξησουν
bru
##μαζ
ζαμπ
κτηριου
επαναστατικ
λαγου
διαυγεια
λοιπου
μοτοσυκλετα
mis
##ments
place
βολος
##aris
ανατροπες
λαρνακα
βρισκ
εκλογης
ενοποιημεν
αγνωστοι
καταλαβαινουμε
##eve
##λικων
σικαγο
εθνικους
γυμνασια
σημερον
##ερεθισ
οθωμανικης
ελευθεριος
ζητησετε
##zen
ασφαλισμεν
ασθενοφορο
συμμετεχοντας
παραπεμπ
##ιωτων
τονωση
μονοδρομο
τελικης
μορφωτικο
θυμισε
queen
διακριτικα
γλυφαδας
##col
ψυχικ
χρησιμοποιουσε
περιγραφες
##kas
##9€
##σιακο
##tha
δοκιμασα
διαθεσιμων
voice
πολεμα
χαρατσι
υπαρξιακ
##σχημ
hard
total
θυμηθουμε
τεθουν
διακεκριμεν
λογιστικης
σακουλα
φτιαχνουν
00€
κυβερνων
##ju
ζωντανες
lcd
##var
δεοντολογιας
##νομων
αντιδρασει
πολιτισμεν
πρωταγωνιστ
σαντουιτς
msc
εδωσα
σχαρα
κοινοτικου
σπαρτιατ
ενιαιας
πρεσβει
four
τζει
πιστευεται
κινο
κληρονομικ
πολυπλοκοτητα
##αμυγδαλ
θιασο
πολλαπλη
ισλανδια
κωδικοποιηση
καταλληλων
oh
1913
ορθια
δηλωνοντας
ανεστη
εγχρωμ
αξιοποιησ
υγιης
ποδοσφαιριστω
cos
κοιλιας
##una
λευκαδα
σηκωνει
##ρκε
1900
τραβαει
πλαν
ροες
ενοικ
λακκο
επιρροης
παντελω
γεννητικ
photos
ανταπο
δικαιουχος
##λεντ
γκρινια
μουσα
αφηνω
ηγετων
οργανωτικ
στρατιωτικοι
διασκευη
ερεθισματα
##700
τεξας
##ρειο
ενισχυσεων
##θιο
βουλευτικες
χασμα
μαραθωνα
γραφουμε
οικιακο
υπουργικο
##lab
κυβερνητικος
ομοσπονδι
λεωνιδας
οικοσυστημα
αναπληρ
γονο
αγωνιστη
περιειχε
κασα
paris
##βελα
κατεθεσαν
αχαρνων
easy
αφαιρουμε
##ηζη
ικανοποιημενοι
##φυρ
φαρμακου
σηκωσει
πρακτικου
λεσχης
διαλογισμο
συνδεσμους
δικαιωση
θεατρικες
##ινονται
προαιρετικα
συγκεντρωθηκαν
τζαμια
main
ball
ηθη
320
κατηγορειται
ευκ
##yo
επαφων
κερδοσκοπικο
κυριοτητα
επιπροσθετ
επιπεδη
μυστικες
λαδιου
μετοχο
##tc
προσπαθειων
huawei
##δοξα
##φαση
συνεδρ
ορασης
ιαπωνικη
αποκαλει
ανοιγοντας
πεθαινουν
χρειαστουν
ταπεινωση
ξυδι
οινοπνευμα
σπουδαιοτητα
bon
##ικτα
βασιλοπουλο
τροφοδοτη
αμαρτιες
ηλικιωμενους
wild
αλεξιου
##oa
αντιδρασεων
##φωνια
φαντασμα
δοχεια
κκ
παραμετρων
ρομποτικη
προμηθευτης
εμπρακτα
ya
μεταναστευτικη
##ψυχο
συντηρητικη
##σχι
μαζεψει
παραλαβει
μπηκα
αληθ
αντικατασταθει
κοπα
επεκτεινεται
ενισχυσουν
πραγματικων
ευθυμιο
sup
##εθν
αραβικα
αδωνι
καρποι
ιος
αμφιλεγομεν
γεωμετρια
σπιτακι
νσης
επιτροπο
ζαχ
κυπαρισσια
αποξηραμεν
πατριωτισμο
εναλλακτικων
##αγωγες
ουκρανιας
κατανοει
block
συμπληρωματικη
##μελους
χορηγηθει
διευκολυνουν
σταματησαν
τζαζ
προσθεσουμε
αρχαιολογ
##τρικα
αναλωσιμα
πρωτεινης
σκευασμα
ικανοποιητικο
συμφωνιων
εθνικ
υπαλληλου
επιδοσεω
συνεδριακο
κυρωσεων
ιακωβ
linux
αναδοχο
tin
ολλανδο
##ξτε
viva
##mis
##dra
θανατω
εκδοχες
ελληνισμος
στρωματων
mw
εκδιδονται
mid
επιπτωση
##ηαη
φλ
ολυμπου
ασαφε
ενστικτο
δυτικες
ευελικτο
ζωου
γαλαζια
αξιοσημειωτο
αιρετικο
##γελ
πολιορκια
βασιλικης
ρεαλιστικο
##ριον
εμαθαν
##φανους
αγωνισμα
εκπαιδευομενο
##πυρην
ενορχηστρω
γυναικ
προβληματισμους
ερασιτεχνη
##πλαστ
ιατρου
αποστελλονται
διαβρωση
κεδε
ματαιω
αρρωστ
αποκεντρωμενης
γιουναιτεντ
απορρεουν
εκπαιδευμενο
##ουαρ
ασφαλισμενων
βιαια
##ηθφ
πιπι
nike
φοινικα
οργανικο
ξηρου
ψαρ
παρεες
##bsp
δημοσιως
αντωνιος
σοβιετικης
απεραντο
απαντησω
βιοποικιλοτητα
διοικητ
μιλαν
γενικοτερο
κουταλακι
##eller
##ws
αθηναιοι
θεμελιο
προστατευονται
after
αντιστοιχης
διαμορφωσης
δοσεων
γαβ
πολτο
βραχου
ατυχη
##δημη
σπουδαστων
επενδυτικη
##τεχνη
ενσωματωμενη
επιλεγμενο
##γραφικες
υποχρεωμενοι
##graphic
παραμορφω
σπυρο
δασκαλων
προκειμενη
παλαιστινιακ
ηρθα
ευθραυστ
απεχουν
τελειωμα
ουλ
ατυχηματων
κυριακο
κρινουν
νοημοσυνης
τυχερος
επιταγη
##μελες
##μανια
μεγαλυτερων
συνηθιζε
core
εκατονταδων
καταστραφει
κατασκευασμενα
##list
διαπιστωνει
ανατολικου
ονειρων
σχηματιζει
χριστιανο
αγαλματα
ανταγωνιστε
λιτρων
ιαπωνιας
γυναικειες
εκθεματα
προκαλουνται
κλουβι
ροφημα
σογια
εγκεκριμενο
1917
γαστρονομια
φτιαξουν
υαλο
ρυπων
αρδευση
δημοκρατικων
συντεχνι
ακουσαμε
vodafone
sat
εισαστε
λεων
κουτια
λειτουργικων
αμφισβητησ
απαλλαγμεν
1952
ηφαιστειο
νοι
μειωθουν
550
αναποφευκτα
διαχυση
σοσιαλιστικο
αφαιρεσει
bla
διεκδικησουν
##ποδη
γονιμοτητα
θριαμβευ
καταστροφικες
εβρο
κρατουμενων
δισκογραφικη
σεντ
εφηβοι
παλεψε
προισταμενη
παλικαρι
ερυθρολευκ
ιστ
maria
ασφαλιστικης
κυβερνητη
wo
μακριν
ψευδαργυρο
παιξουμε
##σφα
αναθετουσα
ζαχαρης
συμπληρωνεται
προσομοιωση
ετησιες
##ρισμενη
κινητες
dog
cab
συνασπισμου
υπερβαινουν
αφηγημα
ακουμπησ
δικαιουχου
αυξηθουν
##μικων
αλλοδαπης
αναδεικνυεται
##στικ
απατης
υποδειξεις
βηχα
μποτες
εργασιακων
κουρσα
μιλι
στειλτε
ετοιμαζονται
αναπηρικ
υποστηριξου
φορτωση
##αζι
πλου
##θηναι
ακολουθειται
σπαρτα
αφησω
##ford
##cert
σωσουν
περιοριστει
εισπραττ
ιντερ
##βαμβακ
ερευνητικου
τοποθετησει
##ευε
διαφορετικοι
μπαρακ
αναδρομικα
audio
##tics
ψυξης
ξεκλειδω
αδελφοτητα
##ito
επενδυσει
μπουφαν
ζευγαριου
series
##gin
ξεχασμεν
##κοπουλου
αερια
βρετανος
δυσκολιας
οργανωσει
χρηματιστηριακ
εκφραζ
##ball
διωγμο
bas
1928
σχεδιασει
##τροφοδοτ
##onia
τροφοδοσια
ποσων
##mor
##σφαιρα
ομαλα
εγκατασταθηκε
καλυψε
hill
##συγ
εξοντωση
ανταγωνιστικες
θρασος
νοικοκυρ
συναφη
βατο
εσσδ
χρειαστειτε
σχετ
σπορο
απευθυνει
ελειπε
καθορισει
καταδικαστηκε
διασπορας
αποθεματων
ευτυχιας
ακουστηκε
##ποδι
ελλαδικο
συγχωρεσ
ανανεωμενο
αναστατωση
βρωμικο
jul
τοποθετημενο
alex
στελιο
κατακτητ
βαλκανικ
ισχυρους
διαμαρτυριες
σορος
επισκεφτηκε
νυχτερινο
##ενο
οσιου
##har
##γραφηση
##νισμο
ποινικου
νικητρια
αποδυτηρια
sens
πιστοποιητικου
θηλαζ
ενισχυοντας
αγγιξει
παρεκκλησι
ταξιδιωτικο
κορυφες
βιολογικων
εντυπωσιασε
disney
αναβαση
εξασφαλιζεται
ικανοποιημενος
sti
##βολια
##imo
1942
εβγαινε
εμποδιζουν
προγνωση
ζωντ
αναπτυσσουν
περιοδικων
χρωματισμο
##ελης
προκλητικο
σακχαρωδη
cola
παραγωγες
διαμετρος
μεταβολικ
προσπαθησα
κολωνακι
παιδαγωγ
ελξης
χολη
υπενθυμιζει
speed
##κριθουν
παμπ
ακριβεις
τριανταφυλλο
προτεινομενο
κοπελες
επικινδυνων
κυνηγησ
πιστεψε
διαβητης
ανακαλυψεις
δημιουργους
μισθοι
foundation
καλεσμενους
ενσωματωθει
##pon
##τζογλου
##gl
οικοσυστηματ
pharma
##ava
##κανα
βελτιστοποιηση
ατομικων
πτυχια
ναξου
γεμιζουν
αδεδυ
τελεση
βρισκεσαι
##mah
πιστωσης
μητρας
κληθηκε
ταιλανδη
οχτω
ξεκαθαρισει
##ιπε
τεχνητο
υπεκα
αθληση
χαλανδρι
ξεραμε
περιορισει
βροχης
τριτα
σκληρυνση
δηλωνε
βαθ
ai
γλυτωσ
ανακατευ
##λιβερ
παπαιωαννου
αγριας
east
διαδοχη
ελληνοκυπρι
france
##ωσετε
##ρυγ
αδελφους
κουδουνι
1924
ανατολ
πιεστε
εφαγε
θεματικο
σκονης
περασμενου
φαυλο
λογισμο
αξιωσει
γαλανο
##ερσον
μνημοσυνο
##φιο
ενταγμεν
εκκρεμει
happy
απαντω
αμπε
##πορο
συναπτ
κυκλικη
##κτικων
πανελληνιας
μαγισσ
υπερψηφισ
φλωρινα
λεωφ
κρουστα
βρετανοι
ριζικα
πεφτ
στυλιανο
ταχυτερο
συστασης
μπουζουκι
επαινο
περικλει
##ρνε
##idi
##βδ
und
αγγιξ
καταγγελ
##ior
νομοθετικο
level
συναλλαγματικ
γνωρισουμε
γεφυρι
##house
##τρεψετε
##σταιν
υποβληθουν
ολυμπο
εφαρμοστουν
λεηλατ
##ζομενων
ερωτικες
##top
##uf
οργανικων
##ανδρε
φλογες
δοκιμιο
γλιτωσε
cinema
αποδοτικο
διατυπ
##θεραπ
leon
ανοιξης
κρεμμυδια
##chan
βγαζουμε
νοστιμα
συμμετοχων
αισθανεστε
##τατος
##nk
χωρ
δασκαλου
κερια
πυροδοτ
ανωτατης
##συσχετισ
##ξνπ
##νταλ
διαιτητη
μπορουσατε
βρεφος
##εντε
connect
ευρωβουλευτης
σατανα
πτωχ
επετρεπε
πλατες
γραμμικη
μηχανικους
ρευστοτητα
συναντηθει
συμβιβασμου
παρατηρηθει
αξιολογου
ανακτηθηκε
αυτω
καθαρισει
παλαιοτερες
ρομαντικη
ακινητης
αποδραση
τσαμ
απαιτουμενες
mol
εμβρυο
απλου
##ληθηκε
αλβανοι
γενναιο
πελμα
κλειδωμα
αρχιμανδριτ
αστεροειδ
ανεξαρτητης
αθανα
κολπους
ικανοι
ολοκληρωθηκα
σακουλες
σφραγισμεν
διευθυνοντ
κιεβο
παθολογικ
συμβαντ
αμστερνταμ
πουλαει
προβλεπουν
volvo
association
ροσ
κοιταξει
βιολογικης
διεκδικησεις
ηλεκτρολογικ
τοσους
φρενο
αναφερομαστε
βραβειων
δραστικη
δικτατοριας
χωροταξικ
performance
επιμ
collection
μικτο
##bin
μεταβολης
παπου
ασφυκτι
ανηλικου
αιτη
λιπαρων
ταυτιση
τεθηκαν
νεκρα
χριστιαν
ψαχνοντας
μονωση
σουπα
σοβιετικο
τρεχοντος
καθιερωμενη
βελον
γαπ
καθορισμεν
##κινγκ
ακτοπλοικ
λυκεια
αλλοιωση
##today
αναδυομεν
χαλαρ
education
υιοθετει
παρου
μοτοσυκλετ
σημαινουν
πρωτοβουλιων
απεικονιζει
διανοουμενο
μαρτυ
hor
φιλανθρωπικο
παφο
portal
αυστριακο
gay
συνεδριασε
απειλησε
γουνα
αισθανομαστε
σωτηρ
πιπεριες
##λετα
##ille
μαικλ
clean
πλουσιος
σικ
ευεργετικ
stick
αισθητα
##ζκ
ισοπεδ
χαφ
τοιχωμα
κοινοχρηστο
##nto
συντακτων
##cre
##φυτευ
καταλληλου
φυτικα
ενδεικτικη
συνδικαλιστικη
σλοβενια
παραδοχη
χοληστερινη
καταργηθει
κερδοσκοπ
ενσωματωνει
##ime
ονομασιας
μαργαριτ
μερισμα
μεσολογγι
διαταγματος
χεριου
βαρβαροτητα
απαντησουν
αντιτιμο
##anda
βελτιστο
εξαγωγικ
μετεωρολογικ
αφηγητ
πιλοτικ
σιδερο
##δημιου
θαμνο
διανυσμα
κοινως
ριζικη
συσσωμ
συντριβη
title
πληγει
κλιματισμος
##pc
##die
right
επομενων
εβαζε
αναμενει
καπιταλισμος
διαχωρισμος
opel
προερχομεν
εγρηγορση
beat
##λαιο
δοκιμασε
συγκεντρωμενο
αποκαλυπτικ
ημεδαπη
σκληρου
##στρατο
καταναλωνουν
προσκαλουν
σκιαθο
##motion
ρομ
συγκλονισ
##rr
φυσικους
αμιγως
ψηφοφοριας
νεανικο
κατασχεθηκαν
##τρεψουν
θεραπευτικο
κεντροαριστερα
##ative
αποτομη
πρεσβης
ρωσους
sar
ταμπου
ρυτιδες
αυστριας
μετατραπηκε
κατειχε
κεκ
σχολιαζοντας
βαρων
οδικη
υφυπουργο
μολυσμεν
διαπιστωσου
διαβουλευσης
κολλητ
καταρρακτη
στεγης
γιαυτο
βικυ
##ful
ορθοτητα
ενεργοποιει
περιφημ
ροδοπης
user
##ova
υστερων
μελωδιες
##ρισκο
φθιωτιδας
##ration
σκανδαλα
eurovision
θεσμικου
leader
γεννημενος
μπαγερν
##ποιημενα
κλαδια
πυροσβεστες
μικρασιατικη
σκεψου
μαρτυρικ
##sha
γερμανου
hal
##λισθη
##τελους
προξενειο
##pol
αυθαιρετα
πυρηνας
εκκλησιαστικης
καταυλισμο
ανταποκριθουν
κλειν
τυρ
διαφανει
εφηβικη
κολυμβηση
##φιν
κακης
δισεκατομμυριων
ιδεολογι
δεχτηκαν
συντονιστικο
αποδεχτει
προσκομιση
θρηνο
here
ορεστιαδα
ανερχομεν
##ετης
υποτροφια
απεριοριστ
##ua
shi
παρελαβε
##φετ
πιστωτες
polo
##ρτι
καστρου
δικηγοροι
απεσπασε
λειτουργικες
αγκυρας
ορθοδοξης
break
μαγευ
μετατοπιση
ανανεωσιμες
##600
υποψιν
##πεμ
κρανο
##eas
ξανθια
ευρ
δωσαμε
δειξω
χωραει
συναλλαγης
σκοπελο
##aff
θερινη
τμχ
αξεχαστη
αφαιρεθει
ετησιας
μπουκαλια
zo
αναφερετε
φρεσκια
pm
tis
αρπαξε
καβαλ
διαταραχων
προσθετετε
πανιδα
##eon
##sse
μαγνητικη
υμων
##φυλασσεται
αιθ
##στραφη
##οπλισ
ξυλ
πρωτεινων
μπουταρη
##bank
christ
##τοποιηση
εμπλουτισμεν
bad
ηθοποιου
ανθρωπια
αυτοματως
καθοριστει
yoga
πελατειακ
συνεβαλαν
συμπαθεια
απλους
οδηγειται
αναποδα
συγκλονιστικη
ναζιστικη
δοκιμασω
παραιτηθηκε
παραξενα
κορυφαιων
αλφαβητο
ενισχυμενη
φλοιο
εξηγουν
##ιεσ
πουλιων
επεκτεινει
πρωτοποριακη
παρομοιω
##νομες
pvc
εφοδο
χιλη
ανταποδοτικ
διαιτητικ
αποδεδειγμενα
ενημερωμενο
παξα
βουλιαγμενης
what
ενδεικνυται
αραβικη
##πτωσεις
τραγο
αντιδημαρχο
##στρ
content
μετωπα
ορολογια
##συχνοτητων
##lux
ζηλανδια
τριχωτο
##λυσι
κατασκευαζεται
αλικη
##ξον
ανταλ
url
od
υπεγραψαν
αυτονομα
##ηεο
development
ινδονησια
##γλου
χωριζεται
ανοιγε
φλογ
φυσιογνωμια
##βανη
φυλαξης
αδελφου
διασημου
προκληθηκε
λαγκαδα
κατοχυρωση
αιθριο
πακετου
##σφιγγ
ομιλητης
ασυν
κρεμες
ιωνιας
στεφ
σον
εισηχθη
νοικοκυριων
αλλοδαποι
πασι
δαφν
μελημα
ρεαλιστικη
ελασσονα
κατσου
institute
##συλλεκτ
πουτσες
εθν
κεδ
νομιμ
καυτη
φορτωσ
καβαφη
##row
σχεδιασε
αξιωματικους
διδασκοντων
αρθρωση
προδοτες
παντειο
129
2021
αξιοπρεπη
##δυν
αστεγο
αιθερ
eg
blogs
ψαξει
1926
αριστεροι
επαρκης
εξεταστει
θυμηθηκα
ζητουσαν
##tube
προτιμοτερο
##kw
χριστιανικης
κιτρινη
δημιουργοι
προκατοχο
αρθρογραφο
νευρ
παρτιδα
parking
ενοπλο
adidas
αερι
αδυνατουν
ferrari
garden
εντοπιστηκαν
εκρηκτικο
χαιδευ
καταψηφισ
##ολογικο
αρρωστη
λουτρα
last
βαμμεν
ισορροπη
προβαλλουν
ερευνητων
εβδομη
δημοσιοι
στηριζονται
αριστεια
μαθητρια
φιλοξενουμενοι
κατηγγειλε
διακομιστη
##μπρε
ζηελ
wordpress
κοπαδι
ρητη
λαγ
διαφωνιες
condition
βακ
αποσπαση
##νιδη
αρχικες
μπλουζακι
καταλληλοτητα
παρανομης
κατωτερω
αποδεχονται
case
λιθου
διεπουν
αποκαλυπτεται
χρυσαφι
οργασμο
μαρκας
##φορια
αρμοδιοι
επιδιωξεις
##βαλουμε
πτησης
##λαρ
ριζοσπαστικη
##ζηα
αθλιο
ευρυτερου
λεμον
##λωσει
pay
σχολ
βιολογιας
χαπι
συγκεντρωτικ
πιατων
luc
στατιστικης
διακοσμητικο
γκαρντ
ψευδαισθηση
λιβαδεια
εξηγη
##θυρ
cool
ασπρα
τεκνων
σκληροτητα
λυματων
##mit
χτυπαμε
πληρωνουμε
οριζοντες
γαμησι
καταναλωτης
συναντησα
τελευταιοι
##ικιων
κατρουγκαλο
ολοκληρωτικη
συμβαλλοντα
κινητηρ
ακουστικο
εργατικα
ρεπερτοριο
πλοηγηση
βραβευμενο
##str
##ikon
νηπια
ισορροπ
1938
μεμονωμενο
διενεργειται
αναπληρωση
πολυτιμες
περσινο
ολοκληρωθουν
ορθοδοξοι
καφ
συμβουν
συμπληρωνοντας
εξεταζ
ξο
απολαυσει
##live
χαμηλοτερε
προεκ
νεοελληνικη
##view
εναρμονι
αναθεωρησης
παραλληλες
κειν
συμπιεση
φιλαθλους
steve
##μπουλ
μιλουσαν
εμφανες
##καλη
1951
προσδιοριζ
εμπιπτουν
ομορφιες
γεννησει
##βαινοντας
ενεργος
##ili
##φαγια
διαμεσολαβηση
chip
απανταχου
διαμορφωνει
##τιζε
##hd
περιοριζονται
φιλοδοξιες
ανηλθαν
επιτεθηκε
αμαλια
μετεχουν
επιστημονικος
επεξεργαστει
σηκωσε
##υπαρχ
προσθηκες
απαγορευει
προπαγανδας
αναπνοης
centre
παναγιωτοπουλο
σαιτ
χτισει
νοικιασ
##τιμο
διαφημιστικο
στρογγυλη
καλυπτοντας
κογκρεσο
πανοραμα
μετοχικου
κτιριακ
κατεβαινει
##win
αναληψης
επικαλεσ
ομαδικα
βραζιλιανο
κηρυξη
συνανθρωπους
σχεδιασης
μακεδονικου
toyota
παραγωγικοτητα
πηγαινα
πιστωση
ασκοπ
λαστιχα
##μπον
εκπροσωπησε
τουρκου
περιορισμενες
ηλικιων
οπτικα
εκφραζοντας
θεμι
εγκαταλειψου
##ket
φλεβαρη
##παλαι
φωναζουν
##vas
κατοικιδια
μυαλου
ορμονη
##κρατικο
συζητησουν
αμοιβης
map
studios
φυγω
προτινος
αντιοξειδωτικα
τακτοποιηση
φυλλαδιο
fer
εκτιθενται
νικαια
1935
προεβλεπε
def
νεαρου
εποικ
##nan
ριχνουν
συμπληρωματικα
##ison
εμπλεκομενων
##καρα
οθωμανο
απαγγελ
god
λεχ
επιβεβαιωσει
εγχωρι
ασφαλισμενους
απριλη
επετειου
τηλεφωνημα
##lop
κοινοτικων
αυτοαπασχολου
συμμαχο
διαδραστικο
son
απαντουν
εξαγγελ
##sos
διαφημιστικη
χουν
##sol
τηγανητ
υμνου
ασαντ
σαμπ
##cor
αυτογνωσια
τρου
##κολου
##ποιημενες
κυριολεξια
ψυχολογο
τεχνολογικων
##db
σταματησουμε
προσαρμοστει
πυραμιδα
##κινηματογραφ
μακροχρονη
##συνο
##ray
εισπραξης
εισοδηματων
ατελειωτες
εκφραστικ
αναζωογονηση
147
εξοπλισ
βρισκεις
αποδεικτικο
αλμυρο
καπη
μειονεκτημα
αποκαλυφθηκε
καθιερωθει
συντελεστων
##λοφ
##ταχθει
κατεβασει
jun
συνδρομης
καπνισματος
πανικου
τεκμηριωμεν
κοσμικο
επιτρεπονται
κυβερνητικης
βενζινης
γυαλινο
απογοητευμενο
ριχτερ
φτωχους
##ema
##ταρια
συνδικατα
ανακατασκευη
μοιρες
τρομοκρατες
ξεκαθαρισε
##πως
αποφυγουμε
αυτοκτονια
κοχ
βρηκατε
επιμορφωτικ
διασχισ
οριζουν
δημοκρατικες
vintage
ευρωεκλογες
δηλητηρια
ιστους
κατασκευαζει
ζητηθηκε
ξεχειλ
αποκτησης
fur
δειγματος
πεξη
αρθρωσεις
##κλησι
επεμβατικ
summer
βαθμιαια
far
138
μηχανοκινητ
ταμπλο
##λαμα
περιλαμβανε
πτυχ
ονομαζοταν
εξατομικευμεν
μειονεκτηματα
ερμηνευει
ass
fifa
πελαγος
συζητηθηκε
γαστρονομικ
προβλεπομενα
ενοικιασης
τετοιους
εκβιασ
δυναστεια
πιστω
##λογα
τροποποιημεν
πληγη
ποναει
size
δαιμονες
ταχυτερη
κυκλα
οργανωμενες
προεδροι
αρρεν
καλλ
επιτρεπομεν
χειμερινη
προμηθεα
than
συμφωνειτε
βρετανικης
συγχρονους
##ντιπεριφερειαρχη
εδαφικη
μετατροπε
δερματινο
νομιζουμε
καπιταλισμο
mari
ανανεωσ
καγκελαριος
μεταθεση
σταυροφορ
χρεωστικ
βραζιλιας
demo
βυζαντινου
εξουσιες
πολυχρονη
εμπροσθ
ματθ
χαριτος
οφειλετε
αυχενα
αγαπημενος
ανησυχουν
ερωτευμενο
φοβισ
συγχωνευ
καταψυξη
εμπειρους
ιπταμεν
βρυξελλων
υπενθυμισε
χρηματοδοτησει
αισθητηρες
κερδισου
κουρτ
ακουσω
δοκιμασιες
ανταλλασ
εμπειριων
γλιστρ
mb
φιλοδοξο
αντιλαικ
υγραεριο
technology
επιτελεσ
##read
διεγερση
μουσουλμανων
##tika
φτερο
ανεξαρτητες
ευκαιριων
αριστες
βουλγαρικη
μειον
δονηση
ten
λιγκα
συμπεριλαμβανει
τραυματισμου
τραγουδησε
μελβουρνη
επιμαχ
υποβληθηκε
γαβρογλου
δικαστικου
εσθονια
ενημερωνεται
1933
καλλονη
computer
μεινω
##berry
ανελαβαν
ωριμοτητα
συγκαλ
επιχειρηματικα
διαδοχικα
επεξεργαζεται
εποπτευ
gal
σημαντικοτερους
παρκε
πλησιασε
παραγωγικες
σιδηροδρομικ
μπαλτα
περιεχεται
επιπλων
βασανιστηρια
αφηγειται
##λικια
αιγοκερω
παραπλανητικ
γενετειρα
υδροχοο
οικισμων
επιταγες
drone
φερονται
ψαλλ
δημιουργων
πλευρικ
##ρνο
##tom
κοινωνιολογια
μετατροπης
βασιλειαδη
ρεπο
123
double
##γενεια
υποστηριζε
people
ταβερνες
αβρααμ
λυγ
αποτελεσματικες
ερωτηθει
αντιθεσεις
αυτοματοποιημεν
##γδ
απασχολησει
ονοματων
προφητης
πηγαζει
στεγαζ
αρμενια
κορυφ
επικαλυψη
φιγουρες
τιμολογηση
εργοδοσια
τραπεζιτες
λυκειων
ποζαρ
κτηνιατρο
φρικη
συκωτι
δυσφορια
##σονται
artist
ζωντανος
απονομης
1919
οργ
φτηνο
πρωτοπορια
αρθ
γνωριμιες
ηροδοτο
πολυπλευρ
126
στρατευ
τεμπ
##σιμες
κατεβαιν
σουβλακι
υπηρεσιακο
ακοη
δεκαημερο
##pan
δημοφιλεστερ
εγκαθιστα
##πληθ
ενδιαφερομενος
πολεμικων
ομιχλη
workshop
##φκ
καινοτομων
deal
εκπληκτικα
##νισμος
##αρχια
ακολουθουσε
εσωτερικους
##ient
διδ
newsletter
##υργει
##ωθουμε
##τισμενο
μαθητεια
καταδικασε
κατακυρωσης
##τεχνο
επικοινωνιακο
155
ρεπουμπλικαν
παιδιατρο
καθαρση
τραμ
πατησει
θερετρο
mall
εργαζομενο
τριπ
ψυχαγωγικ
##μπλε
hip
πετρινο
αυτοεκτιμηση
πλεονασματα
συμβολικο
φωτη
πραγα
μαθητικο
απορριπτει
αγγελα
εργαζομενου
##ταχ
##κονομ
phone
χρησιμοποι
νταρ
δολοφονου
ξεπερναει
λειτουργικου
αναγεννησης
##flex
ασημενιο
υψηλοβαθμ
ταφος
σλοβακια
##els
ροναλντο
εξαρση
αρχιεπισκοπο
βαλκανικο
κτηματο
οργανικα
kan
εισιτηριου
κοινοβουλευτικ
διαχειριζονται
αλκη
μιξερ
##πηρ
##μιδη
1954
τσεκαρ
πανελληνιες
απιστια
απουσιαζει
##μαθη
front
ψαλτ
καπιταλιστικο
δημοσιευμεν
records
αξιωματουχος
συμπιεσ
ηνπο
παραδεισος
τομεων
ακουσμα
κρατει
πυρος
παλιους
κυριακες
καμποσ
##μπερτ
μοιραιο
chic
διορθωσεις
ατοκες
##365
κακοκαιρια
καθιερωσε
προτζεκτ
συμπληρωματικο
μετεγγραφ
εξαντλησ
εισπραξη
##βουνι
βελτιωμενη
διευθυντων
ιθ
amazon
μαυροβουνιο
διατεθουν
χτενισμα
##dog
στρατιωτης
επιτρεψτε
επιστρεφοντας
τυποποιηση
κεντρικων
αρχισουμε
φλου
στηριξε
γεωργιαδη
συμπληρωστε
δορυφορικ
σταλει
κεφαλονια
##rg
αιχμης
γριπης
γνωριμ
##κρη
change
λιθουανια
συναγερμο
νοσταλγια
επιλεγετε
αμετρητες
michel
οξυτητα
τραυματισμους
πρεσβειας
γκρεμο
μαδριτη
επιτηδευ
now
μισθωτο
συχνοτητας
##κοκκι
διαιτολογο
μνημειου
εμφανιζ
##ιμες
κατευθυντηριες
μαροκο
ιδρυτικο
##τουρκ
εμετο
χουντας
αντικαθισταται
ss
αμελεια
συγκεντρωθει
υπαιθρου
πανεπιστημιακου
πρωτογενες
διασυνοριακ
προβλεψει
##ουμενου
διδεται
σπουδασει
ευκολες
bell
αναθεσει
##ριζαν
##eh
ανοητο
υγειονομικου
προσπερασ
θεσπρωτιας
αυξημενα
παραδιδει
κινηθηκε
ρωσικου
dead
συμπεριφερ
ηηο
δεος
γινε
στρατιωτικου
##nov
ριγανη
μητροτητα
sos
##eta
##τσακη
γραμματικη
##dp
φιλαρμονικη
ker
support
καφεινη
αγνωστες
θεατρικα
τευχη
ενεργων
##θρε
μαρμαρι
ζαχαροπλαστικη
330
ham
οδηγηθηκε
αναλαφρ
##craft
μαγικα
τζερ
##δειξε
κρατησουμε
πυλης
μπαλονι
##oph
μοναχικο
πιτας
θοδωρης
διασχιζ
##φλε
προσεκτικη
μακρυα
διασυνδεσης
υπεστησαν
σπουδαι
εξοργισ
αποκρουσ
απαγορευσε
συσκευασ
##υμιν
ατμοσφαιρικη
wc
επιδοτησει
ιδε
παντοπωλειο
natura
λατρειας
cum
αναδημοσιευ
λογαριασμοι
μεγαρου
ισχυουσες
years
μνημονιακη
ανεμ
αθηναικη
##εσυρε
πολυπλοκο
μεσογειακο
διακ
ευσταθιο
ιδανικες
διχασμο
πτησεων
960
θεοτοκο
πιστωτικων
λιπη
εφθασαν
ακαδημιες
υποθετω
αριστειδη
ορκισ
διαχειριστικ
καλωντας
1932
βαρελι
προστατε
αντιρρησεις
οικογενειακα
εκπαιδευτες
151
βαρυτητας
τραγουδιστη
επαγγελματισμο
αργυρουπολη
αναζητησει
πρεσ
συμμαθητες
θερμοκηπιου
##νληαη
διπλου
##θεσιν
διονυσιου
κοινωφελους
γιωργη
εκτασεων
παρανομων
κυβερνο
απειλων
search
ευρημα
ψαχνεις
φωτεινοτητα
οφθαλμο
##σκω
ψηφοφοροι
καταληκτικη
μακρας
ισορροπιες
δημοσιευονται
καλοσυνη
μαλακη
μεταβλητο
φημης
διαβασω
κραγιον
φυλακισης
εμφανης
μυς
αιτιολογ
##gate
συνομιλιων
εντοπιζονται
##tain
ηλικιωμενων
οφειλω
##ηθηο
βγηκα
εγγονο
επιχειρειται
ευθυγραμμισ
καινουργιες
##opoulos
αθεμιτ
αφησα
κρουσματα
τσελσι
καστελ
μοιραστουν
σκουρλετη
opera
τριτες
βομβες
διηγηματα
κρανιο
αντιπροσωπειας
συγγενων
μοναχοι
##ologi
συνειδητο
αναρτηθει
wood
χωρικο
διαβεβαιων
κατασκευασει
ετησιου
εξοικονομησης
φωκα
στερηση
##αυστηρες
οδυσσεια
ανημερα
ναουσας
value
αποστελλεται
##ξαιρε
##δρω
εξυπνε
##λιζουν
τερατα
##aga
##ega
παραστασεων
διανυουμε
κυριαρχου
ακουγε
αρμονικη
επηρεαζ
δεδομενης
αποτριχωση
χιλιοστα
αποκατασταθει
διοικησεω
##αρχικων
προσπαθουσαν
κολπικ
βελη
asset
text
##εβαλλε
factor
επιστρεψω
click
οριστικης
ψυχραιμ
εβγαλαν
φασολια
ηρωιδα
καρπος
##νεα
ρητρα
παραγωγικων
λοιποι
σλαβικ
μπανανα
κολυμβητηριο
##lum
γοητευτικο
περαστικο
φορολογουμενοι
εμποροι
κατοχους
κροκο
φανερωνει
προορισμου
καφετερια
λαμπες
pot
##tag
270
διακεκριμενο
νομοθετικου
##lect
fed
ηνωμενου
λειψανα
επιδοματων
δραπετε
δημοσιευθει
πιστωτικης
εγγυημεν
ετοιμασει
διαθεσεις
ζωντανια
mai
πλοηγησης
οροσημο
silver
σπανακι
γονιδιο
fiat
τηλεοπτικων
επιλεξουμε
ανεφερα
φρενα
κρατησεων
σφοδρ
συμμαχικ
δεχομαστε
μετοχι
αντιστασεις
προτροπη
κρυφη
##ement
καλαβρυτων
κατηγορουμενος
συμβουλιων
μεταβλητες
ψευδωνυμο
απομακρυνθει
πυραυλ
ονομαζουμε
##cast
αρωματικα
αφθονια
συνεχομενες
αθλια
original
επιβλητικο
συντακτες
κατεδαφισ
συγχρονοι
παραβιασεις
λευκες
##γραφημα
€1
ακουμπα
κολπα
διαθηκης
ισχ
πιστωσεις
αναδεικνυουν
υγρη
vr
πρεσβυτερο
##dan
καπιταλιστικη
κλεψει
γνωσι
ηλιακου
παγκρεα
παραταξεις
seat
αποφευγοντας
αγιορειτ
260
κωνσταντινιδη
##kt
καταστραφηκε
υποτιμηση
213
διαβαζετε
μεθυσ
αγγλικων
μακης
διονυσης
φθανουν
προσηλωση
αδερφος
##ριζοταν
##συνδικαλιστ
guest
##ious
κεα
εντυπη
γιοχαν
ανοιξετε
συζητηθηκα
##γενες
dim
ρουμανιας
καταχωριση
νιου
φωτοαντιγραφ
διδακτικου
κρινουμε
επιβατικ
αυτοματισμο
προσδιορισμου
κενων
ανακαλυψτε
μετεδωσε
σκεπτ
εισαγομεν
gallery
εκχωρηση
ρισκαρ
πληροφοριακων
πλαστικες
##ομεθα
θεωρημα
επαιζαν
διαμενου
δισεκατομμυριο
ανωτατ
βαλεντιν
εδειχναν
εφετος
προβαλει
##οικηση
βλαβων
any
πνευματα
##ποιησουμε
προληπτικο
συριγ
μεσογειακ
ομολογω
κωστης
εσωσε
ατρομητος
##βολου
παρατηρηθηκε
##iou
θεραπευτη
εκτελειται
ανταλλακτικων
δεξαμενες
αυλο
κομμουνιστικο
σημειωσαν
##βαινουν
##ikos
##san
μαγειρεψ
##3588
κανονισμοι
ικανοποιουν
μπιν
φανη
δικηγορων
αμαν
αρχικου
σημειωνουν
δικαιως
στενω
αριθμητικη
στιβ
συριακο
αφρατ
υψιστη
επικαλουμενο
θειος
##κουλ
περιουσιες
αναλογικ
περνουσαν
αναπληρωτρια
προχωρου
ευριπιδη
ειρηνευ
ναυπηγει
βοηθησω
τεχνολογικες
κουμ
διορθων
ferr
ξεχωριζ
##ουερ
ban
διευθ
καταστροφων
αηδια
ταμπλετ
δημιουργηστε
##ctor
πλατους
##δακτυλ
channel
πανακριβ
συνολικες
hiv
##νιωσετε
opti
εφαρμοσουν
τηρησης
##etta
φραγμο
απελευθερωσε
πανεμορφα
fc
μειωθηκαν
προαναφερθεντ
γευστικο
διονυσου
βιωσιμ
υποχρεωμενος
οσπρια
ενθαρρυνση
##μπουργκ
κληθου
##ope
ουτος
παρειχε
τσεχ
τροφιμο
μωβ
πολιτευμα
κατηγορουν
στελνουμε
παιξετε
χρι
ομηρος
αναγλυφ
αγωνιστων
εντυπων
##ριστει
μανατζερ
επειγοντω
παραβιαζει
δημοκρατικα
αντλιες
παλαμη
φωτοβολταικων
tar
φρεσκαδα
επανηλθε
ηγουμενιτσας
χειμεριν
αναφεραμε
##βαθ
ρεντη
##σκευη
ψητο
φραγκου
υποδεικνυει
παγιο
ζεστασια
##λεπ
προσβαλλει
ευρωλιγκα
θεραπευτικ
ορφεα
πρωτια
chef
κονι
προεδρων
μοτοσικλετα
γεωγραφικα
προσεχεις
συνεχισετε
aids
διατηρησε
225
επικοινωνιακη
##ποικιλ
δημοπρασιας
φορουν
νεογν
κινει
αντιγονη
φετινου
ψυχολογικ
αγρα
διατηρουμε
χυτα
ορατη
μυστηριου
ακαδημαικα
προσδιδει
αναμειξη
θεολογιας
εκφραζονται
κατασχεση
καλλιτεχνικης
προστιθενται
##σουλη
συμμαχων
μυστηριωδη
ομορφοτερ
επισκοπη
λαμπρακη
##ευεται
ενεργειακου
αλληλογραφια
κυκλωματος
##τσικα
ηγετικη
μαρουλι
leg
μοναχικ
πρωτομαγια
##kr
πικαντικ
rh
μπας
βραδινο
ρωσσ
ομοφυλοφιλο
περπατωντας
φυτρ
στρεβλ
ρωμαικης
κλαψ
αφροδιτης
εμπνεει
πληγων
##βεβαιω
επιτραπεζια
1937
χαλασει
μπαλες
αποκλειει
σταθακη
εφορο
πνευματικες
δικαιολογησ
οικογενειακου
φαρμακευτικο
σακης
##φυρο
φοιτησης
επηρεασε
πετσετε
αεροσκαφους
μορα
εκσυγχρονισ
αντιμετωπιστουν
διοικησεις
165
jan
ενωμενη
##πολις
υπερσυγχρον
σβησει
##mhz
##αντιλαμβανομαστε
##σιτς
σχεδιασμενα
ηδονη
τραγουδησ
αινιγμα
ντυμενο
λεξι
μακαρονια
επαρχιακο
συγκρινετε
##χρονικες
αντιστασιακ
127
ρεντ
σατ
προσθεσω
μεριμνας
##ληφθη
εμφραγμα
γινομαστε
##μορφι
ανεξελεγκτη
δικεφαλο
##παθους
πευκο
secret
καρτ
καμπα
καταθλιψης
ψηφιζουν
δικαστης
υπενθυμιζουμε
εορτων
ολυμπιο
αποθηκευονται
##ζακη
##gram
συνειδητη
εμφιαλω
χολαργο
ιδρ
##θλι
academy
περιβλημα
αρχαγγελο
προσπαθησω
καυσιμο
βουκουρεστι
ακυρωσει
##vil
μεταβασης
ραμα
αλατα
αναψυκτικα
122
ευτυχισμενη
βδ
alfa
λεωφορου
υποτιθεμεν
ρωσων
χορηγη
αντωνοπουλο
επηρεαζονται
κτηματολογιο
share
καταλογου
σοβαρων
##θερμα
καταγεγραμμεν
στιγμιοτυπα
##cing
##kou
τζωρτζ
βαθιες
ανατρεξτε
μηχανικα
κορδελα
φινιρισμα
φυσα
λαμπρου
##azi
σκαλ
φυλαξ
##ρτη
seo
υπερηχο
αφισες
τελικους
προειδοποιησε
φωνητικα
##media
μυλωνα
βιταμινων
ομπρελα
γιορτασε
κλασης
##ουδης
αναζωογον
##ρρυθμισ
ασχοληθουν
##βαντ
document
αρχοντικο
καμπανιας
##γκλι
εργαζοταν
διδασκονται
ψυχιατρο
δουλευουμε
ελμε
καρτελ
##walk
επαθε
δουλεψε
videos
κομμωτ
τριτοβαθμιας
αοριστ
αντιπροσωπο
##fc
καθυστερησε
##ισματα
εδαφων
οδοστρωμα
θηλασμου
human
υφισταμενο
great
κουνια
μειζονος
##γραφι
121
##τιστη
σχηματιζεται
θελατε
ερχομο
##ριακη
##φυλλο
βασιλεως
καραμελ
##cos
εγκληματων
καθιερωθηκε
χορηγουνται
εφαρμοσε
##τραχηλ
δολοφονικ
συμπληρωσουν
ενδιαφερομενο
λαμπερ
ιδιωτων
σολο
αρχηγων
υπνοδωματια
ακουτε
πληττ
νιγηρια
ανοργαν
εμπειροι
##φαντα
μπασο
brown
αρεσαν
υπερασπιστει
υπευθυνων
αδιστακτ
πειραματικ
στρωση
βρισκετε
συσφιξη
νομολογια
##vol
γειτονικο
υποχρεων
ναυτικων
μοιραστειτε
149
ανηκαν
τετραγωνικα
##φυγε
αθλητρια
απορρυπαντικ
english
θεικη
εικαστικων
παρανομου
προωθητικ
συμφορ
κορυδαλλου
πειραματικο
πεμ
μετοχους
ιστων
yahoo
απηυθυνε
τιμησαν
αποτυχει
εκπαιδευτηρι
τελειωνουν
gam
λαθ
προχωραει
##hos
τσαρλ
##sport
ανοιγματα
ελεγξετε
δυναμικες
##παρθεν
ανακαλυψουν
δημιουργικες
εκκενωση
creative
βολευει
ελεγχθει
met
##cat
τσαντ
##λιωτη
ιατρους
θνητο
ποκερ
καταξιωμενο
οργανωμενα
ποσοτικη
μεταμοσχευση
##gon
139
μποτ
μαχητικο
γονιμο
ορθα
υπουργικης
junior
ακρυλικ
ντορ
αναγνωριστει
##lag
φθορες
κουνα
##στηκαμε
##λατο
κατεβηκε
βγαλω
ελλιπη
αποχετευσ
προσεφεραν
υπολογισμους
φασισμο
καταναλωνει
152
διεκπεραιωση
learning
κοτσα
courier
##τρεψουμε
αναπτυγμεν
τροπολογι
boo
αγνωστου
εκκαθαρισ
ιορδαν
βιωσιμοτητας
ισχυε
active
μεταβατικη
κρατανε
φιλοσοφο
διεπιστημονικ
καταγραφηκε
δωρεε
ανεβαινουν
υποβρυχιο
εντοπιστει
σορτ
διοργανωτρια
βικτορ
διαδοχος
καινοτομα
σκαλοπατι
##αλλαγ
κουβελη
ξυπνησει
πανευρωπαικο
κυριαρχησε
επικαιρη
stone
βοτανο
χατζιδακι
συνοπτικο
ξαπλωσ
μουσουλμανους
πανιωνιο
ρωμαικο
υπερωρι
χολιγουντ
αγροτεμαχι
##εβε
αχιλλεας
διασπορα
αγγελοι
δεκαδων
ξεχωρισει
πρωτοδικων
λατιν
εντιμο
μισου
γκραν
υποσχονται
##310
κοκκινων
επιβαρυνει
βολικο
επιλεξαμε
επιθετο
##νοφ
σπειρ
##κεφαλι
ζαντες
ανταρσυα
##kel
εβραικο
ζαχαρια
##σιμ
##wan
##max
ανεμιστηρα
τακτα
εντοπισαν
##ληθη
διπλωματος
απολαυσουμε
κατελαβαν
##210
εξερευνησετε
προβληθει
φραγκισκο
ππν
εκνευρισ
απροσδοκητ
εγκληματιες
##μπλοκ
θεμελιωση
προκλητικη
tips
αρχιμ
sound
μισθωση
παγκαλο
##μικ
ματαια
συμφωνηθει
πραμα
χειροτεχνι
πληρεξουσιο
δρο
πετυχαινει
τσακισ
πολυχωρο
εγκυροτητα
κρυψει
χερακι
τροχους
αντεδρασε
τελειωσαν
δημοτικοι
περιορισμων
συνδυαζονται
μακροπροθεσμη
αθωοτητα
ακολουθησετε
αγνωστα
dar
αναγνωριζοντας
προκριματικο
##ρισε
db
αιχμη
κλασικης
αναστασιου
δημιουργησαμε
υποκριτικη
συμβατικα
επιτροπου
select
οσιος
ταιπεδ
συμπατριωτες
τηλεθεατ
απαρατηρητ
ειρωνεια
επαθλο
ισχυροι
##προσωπη
καινοτομιες
συμβατοτητα
κατοχικα
sym
isbn
υπηκοοτητα
υπηκοο
θεωρουνταν
τιμιου
αλιεια
ποδ
##ωρες
πιεζει
##πολιτικη
ξεγελα
##ista
ορχηστρας
φακε
ιους
παλαιολογο
σταθης
εδεσματ
σηματοδοτ
συμπεριφορ
βελονα
μεταναστη
νεοελληνικ
αιθερια
##ila
δελφινι
αποκλεισμος
στρεφ
προσαρμοσμενο
##μαζο
συνεισφερει
αυγου
προσημο
συχνοτητες
μελισσο
κεντ
προδρομου
ομογενεια
νεφρικη
αριστοτελειου
ασφαλεστερ
παραλειψη
προβλεπομενο
δεσμα
κομβου
ξεκινησω
αγγειων
αναβαθμ
συνδεουν
##δημου
κλωτσ
μεγεθυνση
εκτακτων
τριετ
βαριες
σκουπιδιων
υπακοη
εθισμο
επανεξεταση
liber
στρεψ
διερχεται
πλουσιοτερ
οικοδομικη
καπιταλιστικης
##stor
αρχηγειο
κολιε
palace
μινωικ
σκουπα
συλλυπητηρια
##γεμ
εχθρου
σκεπτομεν
vita
εμπλουτισμο
δεξιωση
chris
γεωργο
διαιτησια
##seis
επωνυμα
##itt
ραιχ
τιμησε
ευφυια
πλουσιοι
ιστοχωρο
απογονοι
##τσιος
##ao
καμαρα
απολαυστικο
φαρμακευτικης
λογοτεχνικη
εικαστικη
αναδ
μακραν
στρατευματων
σχεδιαστικ
στηριζουμε
αργει
xl
##διπ
ιεραρχη
αστρονομια
ζουγκλα
μοναδικοτητα
σεντονια
##βιου
##βυθισ
##θανατ
εισφορας
σκεφτομουν
ρολων
αγωγων
καταδυση
προμηθευτων
ny
tan
ανεκτιμητ
##υμπεριλαμβανεται
##λιακα
ανακριβ
step
##πραγ
γλυπτικη
χιλιομετρο
πλατανο
##ταχθηκε
προσπαθησουν
βοηθαμε
συλλογικοτητα
παρασχει
χασω
##δελτιων
συναντηθηκαν
personal
##πλασιο
προσδιοριζει
εμβλημα
διαδραματιζε
##ποιημενων
εννοιων
asp
πολλαπλασιασμο
αναφερθω
συσχετιζ
πολυχρωμα
αποσταλει
φουσκα
μεγαλειωδ
κοστουμια
εθελ
αξιωματουχους
ρετζεπ
συμπολιτων
μοτο
διεξαγει
εμπορευμα
##ough
συγκεντρωνονται
μυριζει
##ζοντα
χομπι
οδοντιατρικη
αφεθει
χαρηκα
διαφημισ
μαθαινω
συνηθισμενα
απαντησαν
##βαλετε
εκτενη
##τατες
παγκοσμιες
υποσυνειδητ
τζαμ
ιωαννιδης
συζητησ
ωφελουμενο
take
medi
fish
κατεβασμα
νοικοκυριο
πισ
πριζα
##fp
ορφανο
μπαραζ
αδιανοητο
σεξουαλικα
ηχεια
##exit
αναρτητεα
προτιμουσα
πινουν
πετυχα
προτιμησης
καταργησει
αξιολογησεις
εγκαταλελειμμεν
εκπληρωσει
μωυση
δρομεις
πιστευ
coca
διατυπωσει
αγωνιζομενο
διαβολος
τεχνικους
ολομελειας
αποδοθει
βασιλικου
ερωτησεων
ευχαριστημενοι
διαβαζα
προηγμενη
βιτρινα
νυχιων
κλαιει
μιχαηλιδη
ανοια
εξαρτηματων
τρελη
τραυματιστηκαν
πρωταγωνιστρια
μοτιβα
νεαρων
λαβα
διασωστ
αγαθου
##ρακα
απογευματινες
μπαχαρικα
ερμ
124
ισοφαρισε
##work
##oun
διαδοχικες
κυκλωματα
σορ
##nar
##well
διεργασια
hell
τρακτερ
ευκολοτερα
ταρατσα
φιλανθρωπικ
σιω
ακουστικη
καθαρου
σφουγγαρι
πυκνα
ενοπλη
καρπων
καστ
γυναικολογο
##ριστουν
βαθου
ανακοινωθηκαν
ανεπαναληπτ
συγχωρησ
ακριβ
οριοθετηση
εμπλεκεται
ακτινοβολ
μαξιλαρια
χορευτικο
##μπαλ
αποκρυφ
ζωνων
ηχογραφηση
δημοτων
##phy
αναλυτικες
αναιμια
ταξιδεψουν
συντηρει
τεκμηριο
casino
##λοβ
φουσκωτ
κανονικοτητα
καταβαλλονται
κανονικε
γνωριζα
γνωρισετε
συμμαχος
ευκλειδη
ουσιαστικες
αρχηγοι
εκκαθαριστικ
βενιζελο
1925
επεισοδιων
καταληξουν
αποφασεως
##ule
τροποποιηθει
διαγραφει
θοδωρο
##din
λεον
σουηδο
μεσαιο
##ρεπ
##χρι
ξεναγο
ομονοιας
leave
αντιπροσωπος
##στερα
βαθρο
διαμορφωνονται
dell
ελλ
φορτισμεν
θυμιζουμε
λεσβια
τουρκοκρατιας
λυγισ
πολεμικα
προχωρημενο
κινεζο
nature
καλλιτεχνικα
κυριλλο
βασιλεα
bitcoin
παυλοπουλος
ιδρυτη
πικρο
αρκα
ακριβοτερ
αντικαταβολη
περιηγητ
##ρνη
υπογραφουν
αχιλλεα
υιοθετησε
ευαγγελου
ευρυθμη
επισημανει
κλιπ
menu
χρυσοστομου
papa
υαλουρονικο
μεταφρασεις
132
φιλικες
συμπαικτες
μελωδια
μυκονου
χιονια
κατακτησεις
skin
μεταπτυχιακες
προστεθουν
ευγενια
ισια
jim
επισημων
μπανιερα
μαμαδες
αιρεση
αναδειξ
εμβολι
απαρτια
αποχωρισ
εφαρμοσμενη
παρουσιαστη
ακαταλληλο
οστεοπορωση
οικονομολογος
αμεταβλητ
φαρδ
εταιρικο
κλιματισμου
ευρωκοινοβουλιο
αναβιωση
κρεατα
φιλοσοφου
προαγει
##ping
καυσ
ενεργοποιησ
ενισχυμενο
ιωνια
εκρηξεις
φωφη
αλγερι
ενεργειακες
##hin
κατηγορουμενου
ορειβατικ
μπεικον
electronic
δεμενο
εχθες
εγκατεστημενο
επαρκειας
information
##sson
θαλασσο
αντρε
##νειο
τρεχουμε
σχεδιαστες
##χρονα
137
εκσκαφ
ανακατα
##ben
παιγνιδι
ενημερωνουν
κορινθι
διαβασουν
φοβασαι
ανακοινωσεων
πρωταγωνιστει
ορυκτο
βατραχ
στεφανια
κοσμικη
μηχανολογικ
θεσουν
dur
αμαρτημα
συνεννοησης
στρου
ανεμους
σημειω
στιβο
αξιοπιστες
φιλαδελφειας
αποκαλειται
##link
εκλεγμενο
##asi
grec
πιστι
fox
τεχνοκρατ
ορθοδοξος
αλβανικο
εναεριο
απροσκοπτη
##δημα
παρακαλουνται
γιαννου
ορισμενο
##iu
δημοσιογραφικη
##ροφο
γκαραζ
ευκαμπτ
yo
##ities
προσιτες
καθοταν
συμμαχιες
συνελαβαν
ξεχνας
μηδενικο
εφαρμοζοντας
διωρο
euroleague
προσεξει
πουλησε
συλλεγονται
μυθοι
κωλοι
isis
##wr
διαμερισματο
ασος
##dal
hr
επιπροσθετως
τηλεπικοινωνιακ
κωμικο
λατινο
ωφελ
πονα
χορηγος
επερχομενο
βαρδα
διαιτησιας
##κιδη
φτιαχνουμε
πεος
τραγικα
πεντανοστιμ
society
βαναυσ
χαντ
πλακακια
##ici
side
μιζερια
μακρινη
##pes
οαεε
ανδρεου
γλουτ
πρεσβη
##rel
επαρχιακη
δρασει
περιβαλλοντικου
premier
αγγλοι
##δωσουμε
ισχυρισμους
αραχν
υπαρκτ
εξηγειται
##ania
μοριων
##dio
ετερου
βελτιωμεν
μπον
προσφορο
ψησιμο
movie
αισθανεσαι
αντιχριστο
##mission
##δεχθουμε
λαμπρη
αλωνι
##ats
##σωμεν
εσχατη
μαχαιρια
επικληση
##τιμαται
ασχοληθηκα
διαμαρτυρηθ
##σασταν
πατριωτες
σκηνικα
via
##κυκλο
ηγεμονια
εμποδισει
υποσχεθει
εργαστουν
αργεντινης
μακρης
ποσειδων
καταβαλλουν
εφραιμ
περιβαλλει
τσιπουρο
εφτιαξα
εδαφικ
φιλοξενουνται
κλιντον
##ποιησαν
κρατησαν
αυτοκτονησε
##dor
επικοινωνιες
##κολο
αργου
απαισιοδοξ
επικρατουσε
θεολογου
κυησης
sv
απλοχερ
##800
συμπεριληφθει
##φιλια
##πλακ
ακινητη
μαλακια
σκαλε
ξαναδει
βρεθηκα
μεσαιωνικη
αντιστοιχι
εξεφρασαν
υποχωρει
παιδιατρικη
##μηνια
φανερα
φιλοδοξει
##ρυσ
σιλικονης
τελουν
προφυλακ
casual
συμπαραταξη
πελοποννησος
θορυβος
##πτικο
διδακτωρ
επιχειρησιακ
καρδιτσα
αρσεναλ
γκει
##λλας
νομαρχη
γκερ
λειζερ
φλωρεντια
δημητριαδη
arg
διατομη
αποκεντρωση
σφε
##ghz
ανταπεξελθ
##οποιια
νεαπολης
διασφαλιζεται
paypal
επιτεθηκαν
συντονιστικη
τριποντα
τρομερα
##εχεται
χαρει
##χτουν
##λεπι
##λουμ
τεχνικοι
prime
##rid
citroen
διαφυλαξη
καρκινικ
μτφ
αλλαζοντας
παραγωγου
αχρηστο
ξεσπασει
εναμιση
λατινικα
μπαγ
restaurant
συλλεκτικ
χειραγωγηση
ενιωσε
φοροδιαφυγης
systems
ανατροφη
αναποτελεσματικ
matt
αναισθησια
συνηθεις
κοστα
ευγενη
ρολα
ανισοτητα
144
τριβε
τερματοφυλακας
##dc
other
επισκεψιμοτητα
παραγωγικοτητας
διπλες
τολμηρο
τακτικου
δευτερευοντ
καθειρξη
παλληνη
παθιασμεν
γεφυρω
σοδα
santa
υψωμα
μελετητες
αντληση
εποχιακ
κολυμπι
εξεδρα
προγονοι
ανελεητ
director
ξυπνησε
ομορ
μοναδικου
##παιδε
ice
ξενοφων
φασισμου
ιππασια
αυξανομενο
μεταχειρισμενα
κεντρι
σοβα
παρακολουθωντας
##ποιησετε
ανεμων
καταστρεφουν
ριξουν
σταγονα
μαρμαρα
tweet
small
μηλου
family
προσεχες
τρολ
εχασα
ομοιοτητες
βελτιστ
γυρισμα
διακανονισμο
συνδικαλιστες
αγκαθι
αδιαβροχ
μπιρ
##κεντρικη
##σκων
απαλλασ
product
ειλικρινη
εφαγα
##πορει
nokia
##θρεψ
##rom
θεε
tur
pad
πεδιαδα
καθυστερ
χρονιο
οικοδομικ
date
εφτανα
στρατια
paper
συγκοινωνια
φιλοδοξια
αποσαφηνισ
βιωματα
νεαροι
ηλεκτρισμου
βοηθουσε
αδειοδοτησης
ισπανος
ευαλωτο
δισταζ
φοιτητρια
κλινικο
tool
απειρα
σιγκαπουρη
επωφεληθειτε
αποτρεπει
εμβα
nick
##lea
##πωλεια
στοματικη
κατσει
παραμετροι
##gno
διαπιστωνεται
λιντ
ανοσοποιητικου
ψαχνουμε
##iel
νεοελληνικης
νομαρχιακη
ορμο
προσηλ
κλασικου
andre
μπαμ
ταρτα
##care
κορνερ
κελυφο
τερματοφυλακα
διαμορφωμεν
πυρκαγι
ψυχοθεραπευτ
λουδοβικο
συμπληρωθει
##εληφθησαν
διαμορφωσε
##λεη
##σφυ
βεντ
διαδρομων
χαιδαρι
μακεδονι
καθαριστε
τελεστ
financial
δησυ
στραφει
πειραματικη
συζητησε
δολοφονιες
ανοιξτε
δομικα
τιραν
ορατα
ρωμαιο
αρκαδι
συλλαλητηρι
διαφραγμα
διαφωνει
ελευθεροτυπια
αυξητικ
αντεχουν
πληρωνονται
αμελ
διαμεσου
1934
σκορπισ
αστρονομο
διοριζ
αγνωστους
διακρατικ
ευδ
μεσημβριν
##χειριζεται
μετρησεων
βουτια
##γαμε
πολεοδομια
κυβο
αοριστου
διακρισεων
animation
σκυλακι
σερβιρει
κρινονται
διονυσο
επιβιωσουν
μονεμβασια
τευχ
αλλαξτε
διαβολο
αυτοκολλητα
yu
gene
σφιξ
##aux
θελησει
##hp
αφυπνιση
καταρρευσει
εβα
sus
συνθετω
αγαπησε
χηρα
ισχυσει
##θνη
βαλσαμ
##φωτο
##πζ
οιδημα
καρδιολογικ
εγχειρηματος
επικουρος
μονοπωλι
ταλεντα
λυσουν
ανωτερου
φιλαδελφεια
διαρκους
ταξιδεψ
φτανουμε
ιδεολογικα
μεξικου
σιωνιστ
προεδρικες
βραδιες
συνταξιοδοτικ
αναπαραγωγικ
κινητοποιησεων
σκοτεινα
φασιστικη
αντιμνημονιακ
βαπτισμα
αραβικο
συγκινητικη
φαρμακευτικ
τυραννο
σεξουαλικο
φιλιπ
μπολσεβικ
επιτραπει
fly
ελαστικη
παρατιθενται
##enti
πλαστο
παρθενωνα
συνεργαζομενο
##τησαν
κυκλικ
επιχειρησει
σαγ
##πραγματοποιησουν
επισκεφθηκαν
μοτοσικλετ
συμπληρωνονται
επιθεωρησ
von
διδασκουν
φαγαμε
μαιμου
##ido
υποχρεωμεν
ανεκδοτο
ποικιλα
ρωταει
κτισματα
##ουσων
σκυροδεμα
χρωμιο
##γκαλ
αψογο
εξαρχεια
##τσικο
απασχολουνται
προσκαλουμε
οχθες
παντελ
κωδικου
εκφρασουν
επιτελειου
παραδοθηκε
καταλαμβανουν
εκδοτ
εορτασ
καθαρισε
##ants
υβριδικ
τεκμηριωσης
ζητηστε
προθυμοι
προκατα
αποφραξεις
tip
λεπτομερως
θρησκευτικου
##jet
οικοπεδου
διστασε
##ουελ
γλωσσικο
εβγαζε
επιφυλαξεις
##ρθω
φορτια
village
περιπτωσει
παλιοι
εγγονια
ασβεστο
φοβερα
αποφευγεται
λεγω
αστακο
focus
λαχταριστ
ξεχασετε
προβαλλονται
συναγωνιστ
ιππων
πομπη
training
ντανιελ
ωριμες
ασυμμετρ
ups
λευκωμα
γκαι
διαρθρωση
προγονων
μεγεθων
υπερβολες
απεχθ
##τοπουλος
βιομηχανικα
##μζ
βουλας
καρδιο
υποκαταστατ
ελευθεριες
usa
ορθολογικη
##dar
υποχρεο
σπρει
συγκροτουν
##ουχο
nat
διαδικτυακα
##410
mt
απεικονιζεται
##αρχι
μνεια
αναπτυξιακου
υμηττο
μεταφερθουν
τοιχογραφιες
##ουμπ
γατακι
νησακι
ηχητικο
εξελισσονται
5000
εκλεψε
##δερμ
προλεταριατο
πειθαρχικο
εκφραστει
διπλωματικο
ενιωθε
ταπετσαρια
τρομοκρατικ
προτεινονται
καψει
σπασμεν
οντοτητες
γλυκοζης
διαφορικ
λευκων
καταλογους
ανασκαφη
αναβαθμισει
glass
##ροτ
κορυφωση
μηχανακι
αγγιζουν
διακοψει
λειψανο
φορτηγ
κλινικα
βαζα
δισκογραφια
γραφονται
παραλιακη
##kl
παπαδοπουλο
1927
βιομηχανικες
χαρτονι
εξοικειωση
ετρεξε
##χιλ
πεταγ
επτανησ
καταργειται
βοηθειες
##core
απενεργοποιηση
βασιστηκε
μωαμεθ
συναφων
metro
ελτα
##ελευσ
ευκολοτερη
βρεθουμε
ντοπιο
##σουρα
λημνο
μερικως
αποφασιστε
μπογ
ξεπερασουν
αθλο
πομπο
ακυρο
αφιξει
φοβηθ
##τριων
κουτακι
εβρισκα
κατεδαφιση
φροντιζουμε
κατοικησ
##βιτσα
αποφασιστικη
αναφορων
ανεπιθυμητες
αντικαταστησ
ιατρεια
μανικια
girl
ντερ
δεντρου
διαβεβαιωσε
museum
συνδικαλισμο
τριφυλια
γυναικειου
ηλεκτρολογων
##ριξ
στερεοτυπα
##mate
eshop
##βασεις
θερμιδων
καταδικαζει
κουβεντες
απιστευτε
διεπει
##πιστωτικες
μεταφερουμε
δρακου
πληττει
διαγωνισμοι
ισοδυναμει
πνευμονο
εταιρος
##πατα
κοπε
διεκδικησε
ενεργητικη
μετοχοι
##cop
φρανκφουρτη
##σπαρ
αιωνο
πιστωσεων
##εβαινε
δημαρχοι
εμπροθεσμ
ομηρο
ορισμενη
υλικ
##γκραντ
esm
αλοη
##tem
παιδαγωγο
τηρειται
διχασ
##pre
ραδιοφωνικ
ανταρτικ
καπο
##ψηφιστει
παρακολουθω
γαλατα
μουσειων
σκυροδεματο
εξαφανιστηκε
ισαριθμ
##ρρυ
διαυλο
μπουμπου
απανταει
διορθωτικ
views
κινουμενο
προσεγγιζει
διαχωριστικ
αγωνιζ
ναζισμο
##ρτζι
σαμπα
##ense
συνεχομενα
τθς
θρεπτικων
εμμ
αλωση
μεταγραφες
διχτυ
δηλητηριο
αναγνωρισιμ
πεταλουδα
##ευονται
παρακειμεν
##asia
mak
οικονομολογ
εγγραφει
εικονογραφηση
μαριαννα
χαριζοντα
##gos
αρωματικο
θυμαρι
mur
ανυπαρκτο
εντατικ
χαλανδριου
υπαρκτο
αγωνιστηκαν
ντυσιμο
##roll
σχεδιαζουν
αναλυτικοτερα
law
συνδικατο
αδυνατισμα
τολμησε
μητροπολι
υπερβει
παχυσαρκ
σχηματων
μονακο
λαγκαρντ
ξυλινες
καταθετει
ντουζ
συντονιστη
ξεκινηστε
united
##λεφ
προσβασιμο
επικοινωνησουν
φαρμακευτικων
εξεταζομενο
ταυτιζ
λημνου
βασιλικ
##mark
θυματος
##rim
αφηγηματικ
εβρισκε
μαντε
περιορισμου
σακχαρου
##μορφων
##λαμβανεται
καστανο
links
αιγιαλεια
λιβα
υπολογισετε
παραδοσιακους
ηγεμον
louis
συνεργει
καλωδιων
στεγνο
ελυτη
επισκεφθουν
use
επαγγελματων
##idis
βαλκανικη
kra
μυρωδιες
rev
μεσαιου
πειραματισμο
ελεγκτες
##ρελ
πυραυλο
αποικιοκρατ
εθελοντικα
##ευρω
ελληνιδε
βυζαντινων
κατεξοχην
εκμεταλλευονται
απουσιες
ασφαλισμενοι
λεωνιδα
πλουτωνα
admin
αλεπου
εντελει
φωτιζει
δερματινη
μεταδιδεται
αναμετρ
ηνωμενα
εξορια
##οξυ
αγαπησει
νεφελ
αργεντινο
##ροντ
αμηχανια
αναπληρωτες
##κισμο
φτωχη
carl
καλαμακι
τζαμπα
πολιτισμων
μαθητ
##σιμοτητα
νοσοκομειακ
σημειωστε
αυτονοητα
λαθρομεταναστες
απειρες
σπετσ
συνδυαζουν
γνωρισματα
προεκταση
χαλκηδον
##πρακτο
συμπτωση
ενεργοποιειται
αυτοκτονιας
ευεργετη
μικροβιο
επανεξετασ
##αφρικανικ
εχοντες
##τεχνικη
ναρκω
ενοχες
σπανιω
διακοσι
πεθαιν
850
ασχοληθουμε
αραβε
προπονητικ
##σσων
τελειοτητα
αναριθμητ
ετρωγα
ελλειμματα
καλοκαιρινου
gas
εξοπλισμενα
φελ
φιλαθλων
κυμαινονται
wine
περδικ
φτωχων
εμπορους
μαθητικ
φαληρου
διακοπτε
φορτωμεν
επιτροπε
κατσικα
μετακομισε
αιγλη
ιταλικου
αναπαυση
##μετρια
αποφασιστικο
χριστον
μεταφραζ
πεδιων
δωδεκανησα
μαρμελαδα
μικρομεσαιων
ψιλοκομμενο
διαρροες
χαριτωμενο
ελευσινας
εξοχικο
ευρισκομεν
ισοτιμο
κινητικη
θρονου
προποδες
131
χρηματοδοτειται
ευχαριστημενος
τυρο
κατασκευασε
ροκα
διδασκεται
φιαλη
αναλογικο
young
παραδοσιακου
σποροι
αγαπουσε
κεφαλονιας
ξεχασε
##ζοντες
ψηφιδωτ
ανακαινισμενο
γεωργου
βιολογικου
ασπρη
##τωμα
ισοβαθμ
διαπιστωσετε
σουιτα
ισλαμικου
προσφυγα
##ρηση
μοναστηριου
αναπηριες
##ident
σοσιαλδημοκρατι
συλλεγει
προσελκυσει
ωφελιμο
βελουδιν
##σπαρα
##σαντες
πολιτευ
κραυγα
διαθεσει
πατεντα
thomas
λαμβανουμε
γκρο
ειδοποιησε
γραμμ
οικοπεδα
καθιερωμενο
ποικιλου
παρηγορια
δολωμα
κομμενο
φυτικων
λεβαδειακο
ρωμαιοι
εμπορων
franchise
προνομιουχ
λατρευει
πρασινες
λοβερδο
ηττημεν
εκτροπη
ορεστη
κατηγορηματικα
θεσμικων
προπτυχιακ
φλερταρ
μετρητη
ζητησω
ρητιν
υποχρεωτικ
ενδεδειγμεν
αντιμετωπιζε
κραμα
υδρογονανθρακων
διατροφολογο
ρανταρ
προξενο
ερωτηματικα
κεραμικη
γενικευμενη
αναπροσαρμογη
κοιμουνται
cb
κιβωτο
ενδοξο
##πινγκ
βεβαιοι
##σχεδια
##προστασια
αβραμ
εγκατασταθηκαν
σταλθηκ
τετραετια
fund
σπουδαιοτερο
ζεστου
καταληγοντας
las
τσιγγαν
##κακι
πρωινα
##πολυ
απαγωγη
tam
##φρων
θεολογος
##ification
##anne
βουλγαρο
λεν
θρυλο
επιβιβασ
αγγελων
ανυψωση
richard
διεξηχθησαν
επαναπρο
##καλυψη
επιβεβαιωθει
αλλοδαπους
πληρεις
αναγλυφο
δυσλειτουργι
ανοιγουμε
εργασιακες
ασφαλισεων
ross
##κρατει
1599
παγκρατι
προσεχω
τρομακτικο
διαιτες
επερχομενη
νηπιαγωγειου
##πολιτικο
αβερωφ
αναρωτηθει
συμπορευ
επαναχρησιμοποι
##εθετε
μαλι
205
επιθεωρητη
καθοσον
συντηρησ
solar
ολοημερο
νεαρους
peugeot
γλυπτα
μυικο
μετακινηθει
προβληθηκε
καραμελα
εισερχονται
υφισταμενου
λειτουργων
εμφανως
κλεφτες
211
ποδηλατου
αποτοξινωση
μπαινουμε
αντισταθει
μπηκαμε
ουσιωδη
εισπραξεις
ωκεανου
γεωτρησε
ψηφιζει
αθανατο
λαχταρα
επιδρομες
εισηγαγε
συγκλητο
πλαγιο
πρωινου
136
εξισωσει
ατελε
##απλωνεται
καταδικαστει
ευδαπ
αναταραχη
μεταφραζεται
βαθυτερη
προπονητων
τηλεορασεις
πορειες
##ии
λαχανο
σφοδρη
εκφρασω
διαφωνησ
μαρτυρουν
βιωματικ
παροχους
αλλοθι
συναψει
επελθει
στατιστικες
ανταρτων
αποτυπωνει
ελαφρο
φασιστικ
τριανταφυλλ
εξειδικευμενων
soul
προερχομενο
σωματικες
πλησιασει
ολοκαυτωμα
καραγκιοζη
πρωτοδικειου
γερμανιδα
επαρχιες
σκιτσο
##διοδια
υπολογιστει
ξεφυγ
143
γρανιτ
εταιρο
λεγοταν
mos
διανοητικη
μετατρεπονται
σιγη
παραλειψεις
perfect
brands
ταυτοτητες
προσεκτικο
επιλεχθηκε
επιτυχοντ
γονιος
διδακτικες
γεννησ
δεσμευτει
εγκατελειψα
πηγαινοντας
διαδραστικ
ανατρεψει
μεταβαλλομεν
ηρεμα
alt
αυνανισμος
αγαπημενου
ορατοτητα
παθολογικη
πλαστικων
1910
ελκυστικη
μονοκατοικια
ψυχα
πολυκατοικιας
##ριστικο
διοξειδιου
συμβατ
αλληλογραφιας
golf
μυστικων
ενεργοποιηθει
λεωφορειου
deutsche
χαρτονομισμα
καταγεται
επακρο
φωτογραφιση
υπαιθρια
diesel
πξνζ
εξετασε
χοληστερολης
ιδιομορφ
χανουμε
υποβρυχια
στηθους
διοικουσα
##αθληματος
τριγυρω
##ρισμενα
ηλεκτροκινητ
conf
οξεων
εψαχνα
περιττα
τυραννι
ετοιμαζουν
##iano
καρυδας
περιπτερα
tag
ταγματος
εφτιαξαν
θερμοσιφων
αρωγη
νυκτα
status
καισαριανη
ακτων
##ride
συλλογι
συνδεσει
προβλεπομενες
ρουχο
ερεθισμα
δραστικο
παραβιασ
διενεργει
αστειε
θεοδωριδ
παγιδες
καλαθοσφαιρισης
κινεζικα
ασυνηθιστο
##λνκ
στελεχ
134
φορτιστη
συμμετεχω
δοκιμασουν
τσερ
ικανοποιητικα
παρεμποδισ
καμπυλες
πληροφορει
κοινοχρηστ
θρυλος
λαθρο
αντιστοιχω
##ικτες
ονομαζει
μαγευτικη
σπουδαστη
γκριζο
υποβαθμισ
##δοση
απομενουν
οσμη
εξαρτημεν
τηλεφωνων
καγκελαριο
αυριανο
σακακι
ανοιξα
εξαγγελιες
ποντικια
εφερνε
φυλακισμενο
βοτανικο
αντλει
εισηγητρια
νησιωτικ
παραπλευρ
ηρωικο
##ριτη
εορταστικ
μαγουλα
τσιλι
συμμετεχουμε
στηριξαν
τινος
##ρησε
##λογουν
επιτυχουμε
πεινασμεν
προβουν
επανεκκινηση
ποιοτικες
εμπορευματα
θλιβ
επικουρικη
χλωριο
##ληφθηκαν
χαλασ
##θοδ
##ζουρ
απλουστευ
ικανα
bonus
λογιστη
##δρομη
αυτοσχεδια
μεταφεροντας
χαχα
φυτικης
γραπτες
βιοτεχν
hack
χριστω
streaming
γενεθλιων
##source
αναδιοργανωση
αιθεριο
##σελιδο
αντιστροφο
λιρα
φοροδιαφυγη
διαλυθει
smith
καθημερινω
##sin
ασυλια
εγκυρο
συνιστουμε
προστιμου
γνωρισμα
συναρ
μεταβαλλεται
##vr
πρωτογενους
##glo
cut
καθοδηγει
οδυνη
pod
##uda
αθλ
αρμοζει
γονατισ
φολ
##βαλλετε
μανωλα
πυθ
##ington
επιστρωση
κομνην
καραμαν
παρακαταθηκη
##φτει
ηχογραφησει
χωριζονται
απορριψει
λεγε
στρατιωτη
ξαπλ
συναινεσ
ειπωθει
##cam
ξεφευγει
εκδηλωθηκε
ερημω
εισηλθε
προσεγγιζ
θεοδωρο
ημιχρονου
lee
νεοτερα
ερμουπολη
challenge
προασπιση
terra
συναρμολογηση
outlook
ουζο
##wh
spin
συζητηθουν
επεφτε
ελληνοαμερικαν
παραπλαν
κοινοποιηθηκε
κουφο
επαναστατε
visa
τελειωσα
stage
ολιγον
πιτες
rgb
συνεργασιων
αρματα
νεωτερο
απαρτιζεται
##aire
καθεστωτα
συμβουλευτειτε
##δρομιο
μετεωρο
δικαιολογιες
ασανσερ
αποχαιρετησ
οφθαλμου
διπλασιο
καλαισθητο
καστρα
αντιοξειδωτικ
ουγκ
εκδικαση
σιμ
σωζεται
hit
πιανουν
γιγνεσθαι
ρωτηστε
μιλησα
string
γδ
γριπη
παρατηρησ
κατωτερη
αναλογιες
σημειωτεον
τουαλετες
καλαμπακας
δαπεδου
διοικουν
αρνηθηκαν
κωστοπουλο
νιαρχος
πολυχρωμο
αλλεργια
πνευμονα
προφορα
force
μπουκα
τετραγωνα
επετειακ
##ider
##lat
μονιμως
##κτονο
σταθμευση
οφειλης
παρακαλει
θηρας
##τζηδε
##ριντ
##γκορ
φασισμος
##flu
περιπλοκ
σωτηριο
απεγνωσμεν
προηγηθηκαν
μυρο
διοριστηκε
αξιοπιστα
μεταφερετε
υποβιβασμο
μπαγκ
νβα
ξανθιες
guardian
κουκουλα
δημοτικοτητα
σκυταλη
ρομαντισμο
##πυκνω
δηλωνεται
ακουσαν
αξιω
##ξειδ
περιεχομενων
θλιβερο
παραβολο
τριανταφυλλου
γεωπολιτικη
αποσκοπουν
πλακετα
μισελ
επιφανειων
παραγωγα
εξαλειψ
αναρτημεν
λεβ
βατικανο
πολυκατοικι
ασχετω
χιλιες
συνδεδεμενοι
προσπαθειτε
καταλαβαν
αυθαιρετη
συμφωνουμε
καταδεικνυει
διαμερισματων
πατριδος
γεννηθηκα
παραθετω
ελευσινα
αποφραξη
συνειδητοποιηση
πηγαινω
παραγγειλ
πλατια
συναρπαστικ
δροσο
ηπατος
##urt
επιστροφες
συντροφε
εγγεγραμμενο
ιεραπετρας
βερα
συμμετοχικ
επαναληπτικο
δεσποζει
νευρολογικ
διανοια
μπιφτεκι
##ιωτικο
κεντημα
##βδομαδες
ξεφυγε
εξαπλω
τυνησια
daniel
ζητανε
xiaomi
κτηνιατρικης
μαρξισμο
υπεν
##tiko
ανησυχειτε
camera
πεθαναν
πρωταγωνιστουν
##ente
οστις
αγνα
prince
μαθησιακες
148
παρουσιασουμε
ευθυγραμμ
τουνελ
κειμενη
panel
θρησκ
τελετες
magazine
expo
ευλαβεια
πετουν
##itter
επικεντρωθει
εργοδοτων
φωσφο
ανεμου
##βγαλ
kor
παρακολουθουσα
χειρογραφα
επιτυχουν
κατοχυρωμεν
διονυσιος
##iller
surf
βιομαζα
αποδεικτικα
διευκρινιζεται
μηνιαιες
δοκιμασμεν
ρευστ
ευνοουν
αγριε
λατρεψα
ανεμελ
αποκλειοντα
σαρωση
καπι
αδειοδοτηση
εκπροθεσμ
αφιερωσε
κατωφλι
ανυψω
σωματιδιων
ανακριτη
ανακοινωθουν
σοσιαλισμου
porsche
##ριανο
θελησαν
προαναγγελ
τεμαχιων
συνειδητοποιει
καρολος
πρεσβευτη
εισηγητη
πετρωματ
εμβαδον
ελπιζοντας
country
κλοπες
ξενου
νηματα
ευαισθητες
##fil
συγκαταλεγεται
πυλων
αναστημα
βρωμη
τραγουδιστες
αγκαλιαζει
τζελ
arena
εγκριτ
##βαλλουν
146
##ρνουν
υπατη
βελτιωνουν
κατεψυγμεν
ενυδατικ
##onic
σταχτη
##εστερο
##rb
στειλουμε
αληθη
sir
βαβ
διαδεδομενη
ουρες
εξαντληση
ιταλους
πενθος
σεξουαλικοτητα
αναγραφη
ευχαριστες
συνεχιστουν
θωρακιση
παραγγελιων
πρωιμο
προφυλακισ
ψευτικο
παλετα
ασπροπυργο
διερωτ
κραυγη
φρεγατ
viv
##lac
βιωμα
απεδωσε
εισαγεται
##ρικες
διακονια
##κυρια
θεοτητα
μυθικ
φωσφορο
αναρριχ
##bie
φιλοξενειται
ενημερο
ψηφισα
##ωνυμο
suv
εξαρτημα
κινηθουν
δαλ
##βετ
ασυμβιβαστ
σπιρτζη
βρισ
συγκατα
αγγελοπουλος
θνησιμοτητα
χορτοφαγους
αγαπατε
2022
εμμεσο
##θανο
συγκριτικη
πανηγυρικο
ομοιοτητα
##adi
##πτωματα
αναγνωριζονται
καφετεριες
μετασχηματιστ
##stru
προσεγγισει
υποδουλ
εργασιμη
##κινητο
φιλελλην
εισαγονται
τονισω
ιχθυο
ανθεκτικη
κουφωματα
πεδιν
επιδημια
συναντησετε
κωδικες
##λιανα
γιαννο
σαμοθρακη
πειθαρχικ
πνεουν
πυρηνε
πλυση
178
πιστευοντα
βουτηξ
αφαιρεστε
πατριωτικο
αντικρυ
λευτερη
##ποτα
αναρωτιεται
κερατο
αποτελωντας
display
καλλιτεχνικες
υστερη
αποφασισμενοι
ακουν
πωλητες
απορροφητικ
heart
μαστο
ξεφευγ
##cap
αποδοκιμασ
παραθετει
λαβυρινθο
μετατρεποντα
θαλασσιου
κουζινες
κομματικα
καθησυχασ
αριστοτελους
πετυχημενη
ανεξαρτητοι
αναργυρων
##play
εκλειψη
ζηση
καποδιστριακου
##inder
ακυρωσε
κουταβι
απειλειται
password
πολυνομοσχεδιο
παυλοπουλο
συνδεσμων
neu
##βιβαστει
ακολουθησουμε
αμοιβων
αυριανη
##παρασκευ
αθεο
books
εξελισ
##ural
φοιτηση
μαχητικα
διακυμανσεις
μαεστρο
επιτοπι
επιτοκιων
ενοχλητικο
ευκολοτερο
αντεξε
μπαντε
θαυμαστες
##tica
διδακτορικη
ερημη
σκοραρε
ρατσισμου
κραυγε
ποτισμα
υποστηριξ
συμπυκνωμεν
ακουστηκαν
lifestyle
αμβλυ
αμυντικου
παθολογο
εραστη
αμην
καθυστερησει
αμινοξεα
πρωτογον
ενυδατικη
##δοξο
υποβληθηκαν
εγκεφαλικη
πεπεισμενο
κομμωτηριο
προτιματε
coffee
βαμβακερο
δυσκολιων
480
##vor
σωφρον
ευελικτη
οριακη
spf
##καμπο
παραδειγματος
τομες
κορεσμεν
βασιλα
βλασφημ
##rama
συγκριτικ
κτηνιατρικ
δοσολογια
σχολαστικ
προσιτη
φωτοβολταικ
τεκμ
καντα
διολου
εμελλε
ανισο
##mine
επισκεφτουν
σημερινων
##αντιμετωπιζονται
##δημοσιευ
##tl
##δεξιο
στατιστικων
συμπιπτει
ρυθμιζομενο
season
σκευασματα
##λεκα
πιεσε
διασφαλιζουν
αφηγησεις
μελαγχολια
ενταλμα
ωμεγα
1931
πηλιο
bou
εχθρων
αποθαρρυν
θεριν
αντιλαμβαν
πανηγυρισε
##ρριφθηκε
plug
πηλιου
abc
οστεο
διακα
οπλισμενο
καταχρηστικ
πουλμαν
ξυλεια
roman
αμφισβητησει
χαριτωμεν
πενα
σεφερη
ψηφισματος
αντιληφθουν
κλιματισμο
##ριστη
##περιλαμβανομενων
ενοχλουν
fab
χρηματικα
ονομασιες
πυλωνες
ελευθεριω
κωδικων
volley
χανοντα
πεσοντ
ευχαριστησουμε
##wear
μπαρες
καροτο
παραβιασε
ζωτικο
ενημερωμεν
##διδα
νευρικου
αξιωση
ηθοποιων
φιλοσοφικο
διαβολου
money
ηγεμονα
ισχυριστηκε
υποτροφιες
καταργει
ειδοποιησεις
βιομηχανικου
133
ντοπια
##ζζ
επιταχυνει
σταυρουλα
αγκα
μεταβολισμου
ισοτιμη
θηλε
arts
βρεφονηπιακο
γνωρισαν
ανταποκριτ
ερχομαι
αναλω
εντεταλμεν
αναλογουν
ωναση
εσφαλμεν
πυλου
##μπρι
##ih
διαβεβαιωσει
mou
χειμωνιατικ
παρακρατηση
medical
θανατων
γερασιμος
αρωγο
χαρτογραφ
φυτικο
##oke
αναβει
ισου
σταφυλια
δαπεδα
φιλιππο
τοιχωματα
##alis
ομολογησε
##dem
επιγραφες
εμφυλ
ξεχασω
αποτελουμενο
ανατεθει
στερειται
διατηρουσε
τεστοστερονη
ενσωματωμεν
##κινηματογραφικες
εκτοξευση
μουσουλμαν
εμβληματικ
παρενοχληση
εκδρομ
##δοτει
θυμισου
διαλεξα
αποτελουμενη
διαμαντη
κυρους
βαθυτερα
δολοφονηθηκε
σεισμικη
magn
ενδιαμεσα
υγιεινα
emp
αποδοτικη
προσπελασ
ψαραδες
θυγατερ
αμυγδαλο
κτηριων
σολομο
υδρογονου
μεσοπροθεσμο
επενδυτικου
gp
κατακτητες
επισκευ
εμπο
προσδοκιων
##κρυβ
διαχωρισμου
στεκονται
ερχονταν
κομμουνιστικου
##part
δελφων
θεμελιωδεις
προσθετων
τροποποιει
τεχνιτες
##καταστησουν
βοηθησετε
μπορεσα
δημοσθενη
σταματησ
αρχαιες
magic
##gia
παθολογια
##υργων
προσευχες
λεπτομερ
αστερισμο
δικαιολογει
αναγκαζει
ικαρο
βελγιου
προσλαβει
ιατροι
γριφο
ισες
##ποιημενου
κατερρευσε
εθνικοτητα
##χλωρ
λεγα
παντελονια
deb
χαρακτηριστικες
bed
βγειτε
παργα
dl
εμποδισ
##510
μονιμε
τρικουπη
blo
βαλβιδ
##γραφουμε
χελωνα
ερασιτεχνες
1800
αθωα
##κυστ
ελεγξουν
φυγουμε
αμυγδαλα
αρμενικ
συλλ
θυρων
μαγευτικο
εμπα
σωτηρο
##fit
παραληπτη
φυσσα
προσχεδιο
πρωτοδικειο
##χασουμε
σιδηροδρομικη
ωριμη
phil
εναπομειναντ
θυρες
##τιδη
rf
πολακη
βυζαντιου
απομακρυνεται
καλλιστα
142
##πραγματ
γενετικα
ειπω
##μετρου
##εηαη
εγκαταλειπει
πιστοποιητικων
συνοπτικη
βελτιωνεται
αξιωματικο
αισθητικα
γεωπονικ
ιατρειου
edu
μαζων
δρχ
εκατερωθεν
##κληρω
συγγενεια
##βελη
141
##eria
μαγκα
διαδραματιζ
sor
ερχομαστε
##izz
δικηγορικο
##δπ
επιπολαι
υπογεγραμμεν
πρωτοτυπες
πανευρωπαικ
υποψηφιοτητες
πρωτοτυπια
αντιμετωπη
gadget
professional
μεμονωμενες
##ech
##γελα
αποδειχτει
αγγουρι
μουσταρδα
ανακτορο
εργαστηριακο
ολοκληρωνει
ακροβατ
ευαγγελιου
προσομοιω
εμπεριστατωμεν
his
αρχιτεκτονε
εμμεσως
λωριδες
σαλε
δωρακι
μαστορ
αριστερων
υιοθεσια
λασπ
σκοτωσαν
κενη
πληγεντ
δειλα
απευθυνομενος
βιωσε
κοινοχρηστων
##ize
εξοχην
##och
ζωγραφο
σουλταν
βραχιονα
estate
ερυθρου
φωτογραφισ
επιβιω
συνδιασκεψη
συμπαγη
εμποδιζ
οργισμεν
quest
##ζομενου
τραπεζης
μανικιουρ
##πηγη
νυφικο
ρυθμιστικο
κοβουν
some
αγγιξε
διατηρησουμε
ευκρινεια
κατσαρο
1915
γενναια
αλεκος
αντιρρηση
##bal
ax
νεοφιλελευθερ
προετοιμαζει
ελστατ
καταχωρισ
πυροβολικο
τιμησει
συμπεριλαβει
ποδηλατικ
δουλευω
thessaloniki
αντιβιοτικ
##τιανο
φετιχ
επιστημονα
παρεμενε
θεατων
βαζο
ψυχων
ανθυγιειν
##γραψαμε
λογιστηριο
ανδρου
##gal
ερασιτεχν
ζουρ
ευλογα
δεδουλευμεν
ταλαιπωρει
συλλαβει
συλλεκτη
θεωρησει
εμπλακει
σεξουαλικες
γουεστ
παρασκευοπουλο
ψιθυρ
κλησεων
μεταφορικη
ελαφροτητα
μαστιχα
κορμου
ταγματα
μικροκυματων
εριξαν
κενου
τελικων
ευγενιο
##τυπωθηκε
στερια
##θυρο
υπεγραφη
δαπ
εισαχθει
προωρα
φιμω
δραχμες
πιθανων
μαξ
εναλλασσ
δουρου
ανευρεση
φτωχοι
φανατισμο
ριζοσπαστικο
ενωνουν
οικουμενη
γαριδες
##βιζ
εσο
τεχνητα
logistics
ομοιομορφα
απομονωμενο
απορριμματα
αφιερωματα
καμπινγκ
kids
ζητουνται
##εζικο
διαγωνισμων
φιλαθλοι
αναπηρο
αντιολισθητικ
βετερανο
προφορικο
προσληψεων
συντονισμενη
##στρεφεται
μητσο
switch
##ρξ
pame
kara
ατυπη
αποκαλυφθει
εσηεα
##τοχ
επιμηκυνση
δυσμενεις
καλλιεργειται
σχολιασει
λυρικη
διασκεδαστικη
διαφανο
συσταθει
απαιτουσε
θεμελιωδων
νοσηρ
ceo
συγκινησει
##pri
σποτ
σγουρ
περιτεχν
κυριακατικη
ζαφειρ
υπογραμμιζοντας
ζωηρο
##φυτο
προσφυγικ
##φειλ
πρωτοποριακ
απαντησουμε
συγγραμμα
υγιου
στοχασμο
χατζηδακη
##θηκων
καυσαερι
176
αναφεροταν
υλοποιηθουν
νεοτερες
limited
λαφαζανη
κασσι
##aria
πρωτοσελιδο
αυξανομεν
πληρωματο
αμπου
φαρσα
εκμεταλλευομενο
σαρωνικο
βιογραφια
εμμηνοπαυση
επαναλαμβανει
156
νεαρα
ληθη
##δραση
δεξιου
σχολιασμο
μικρομεσαιες
προκαλουσε
θαλασσιες
ανευθυν
##azz
αντιφασεις
ριχνετε
στεγνωσει
ζητησαμε
playstation
διευθυνει
αρχιζε
συναρτησεις
αποτυχημενο
154
υδρ
συνανταται
ιδιοτητων
απορροφα
αυθεντικα
υπολειμμα
δεσμων
καθυστερει
##μουρ
##hor
αμαλιαδα
##soft
οικονομι
skype
τομογραφια
συγγρου
κλισε
##κοιμηθ
μιλτιαδη
σηκωθει
κριτες
μετεγκατασταση
ταυτοχρονως
μοσχατο
ζυγαρια
ζησαμε
πυροβολησε
επενδυτικα
αποζημιωσεων
προκηρυξε
τραπεζο
εφιαλτικ
διαρροια
διατυπωσε
υπουργικου
μωρε
μποτακια
ιγνατιο
ζαχαρω
διαπιστωνουμε
στηριξουμε
αρτι
συνεταιριστικ
συμμαθητ
οργανικες
ζητησουμε
πινελο
καταγμα
καουτσουκ
sigma
φιλαθλο
ωθησε
εμφυτευμα
συνολικων
νεκταριος
ελξη
ικανοποιησου
κατερινη
αντιμετωπισετε
ευελικτ
σκετο
επιστρεψετε
##tina
αχλαδι
διηρκεσε
συγκοινωνιων
natural
σοσιαλ
κλιματιστικο
οπτικοακουστικ
αμφιβολο
πιασουν
παθητικη
##πομπ
αγορ
##zar
μπαταριων
στοχευση
##εσθε
δευτ
αναπτυξιακων
κοιμητηριο
αξιοποιουν
παπαδημου
week
##εχουσα
fat
ανεκδοτα
εμπρακτη
οργανωμενου
##ρετε
προκαταληψε
καλυτερων
λισαβονας
πεψη
δισκων
σωρευ
##μιμ
βιδες
διαλεκτικη
σωζει
φημισμεν
προστατευμεν
εξαπατηση
αμεσων
τεχνασμα
ευχαριστια
μπαινοντας
vip
δορυφορικη
feed
επαναλαμβανω
συνδρομητε
κληρικων
συνεργο
ιεχωβα
εκφοβισμο
bob
##πομπη
pap
αδερφε
αντονιο
υπερυθρ
αφαιρειται
αντοχες
παλευουν
καλυβι
##plus
αξιοποιηθει
αντιποδα
καρπουζι
αδιαφορη
215
καταγραφηκαν
κωμοπολη
##ηθεο
κατεβηκα
φλωρο
κρουαζιεροπλοι
εφαρμοσμεν
υπηρετησει
ατακα
τρυφερο
βιωματικη
καποδιστριακο
ποιοτικων
συγκατοικ
τριτεκν
sexy
υποχωρησε
συναφεια
σεναριογραφο
ληψεις
ανεξαιρετως
ανεξιτηλ
μητρωα
κοιταξτε
κομψη
##νινγ
δικηγορικ
##iga
εμπαινε
κρατουσαν
1921
καραβια
archive
διαβασ
χαραγμεν
##side
##κωλ
fitness
βαρυνει
βουδαπεστη
παραξενη
κινουμενων
πυλαια
μετσοβιο
κοστη
αγνη
mind
μπιτ
πληρωσετε
εγχωριο
διαπολιτισμικ
τροπων
διαταγες
##rad
απαντε
γραμμικο
##πετρα
##μοντ
τθν
μπεργκ
αρκαδια
στρεφονται
χυδαιο
μεταφυσικη
δυστυχ
συννεφο
ευρυτανιας
δραματικο
αποκτησου
πλουσιων
πολυκατοικια
##λυθηκε
φυλλαδια
συνυπαρχουν
fred
αποσυρθει
παραπεμπουν
τραπεζακι
εξαπελυσε
ερευνητικες
jet
αναγνωστικ
καλπη
μελισσοκομια
αναφερομενη
περασω
ζωμο
pit
##σθενη
κινεζοι
συλληφθεντες
εξοπλισμενη
ταβανι
φθιν
χορευουν
ομοφωνη
εργονομικ
##κζ
μανδυα
αποφευγοντα
ενημερωσουν
επιβαλουν
spring
fit
βεβαιωσεις
τζανακοπουλο
φαντασματα
κανανε
πριγκιπ
καπελα
αναγκαζονται
παπαδιαμαντη
διακοπει
εμφανισει
καταφευγ
εβδομο
μανολη
βιομηχανιων
καθισει
δημαρχειου
αθηναιου
σηκωθηκε
μπενακη
##παικ
προκηρυξεις
γαλακτωμα
διαφωνουν
καλεσμενοι
προθυμια
κοψιμο
##arr
αεροπορικων
168
εγκαταστησει
βρεθηκαμε
##ποιω
αστρολογια
στοκχολμη
τοπογραφικ
ανακοπη
πλειστηριασμους
καινουργιου
ριχνοντας
year
προστατ
βικιπαιδεια
τακτικων
ποταμων
peri
πολυδιαστατ
υλοποιουνται
εβδομηντα
διαπροσωπικ
καπιταλιστικ
πτυχιακη
φιλανθρωπια
ενεργοποιημεν
αυταπατες
παιξω
εργοστασιακ
προσθετουν
σοφοκλη
##πολεμο
χρυσες
λαμα
χαιρετα
μισθωτων
μιμηση
σπορων
τιμολογιου
δεκατο
##σκαρ
πατριαρχου
εβραικ
##μεριδες
αλυσιδων
λανθασμενα
πλειστηριασμων
μετρητων
εκτροφη
δανεικο
προωθειται
ξοδεψε
εμπιστευονται
ηχειο
gla
πρωτοκολλα
διαφωνω
στοιχισε
απολαυσα
λατρευουν
μικρασιατ
##market
απεσταλμενο
εξομολογηση
σχηματισει
μιλατε
νεοκλασικ
αρτεμη
ποθου
##τιζαν
δημοσιογραφικ
##ριτης
επιθυμω
espresso
γραφτηκαν
βοηθηματα
##ιμοτητα
##rah
οινοποιειο
πυρπολ
νετ
ερυθρα
χορων
ελλειμματο
πατησιων
ζπκ
σκοτωνοντα
##ροπ
γιωτα
##matic
αναγκαστηκαν
απολαμβανοντας
σπρωξ
ισοβια
διακοσμο
νοικοκυρα
χωνευ
ασκηθει
ονειρικ
αναθεμα
##πορτ
ολιγοι
καθηγητ
αναπτυσσομενες
σερβιτορο
##σκοπια
βλακεια
166
εξοχικ
little
κατεστρεψε
αντιστοιχια
επετρεψαν
ανθρακι
ευεργετικες
καρπου
οργανωθηκε
δυαδικ
τραυματια
πηνελοπη
πιτσιρικα
καταρρεει
εκκενω
προταθει
##καθοριστικα
βαλαν
ερασιτεχνικη
βλαστο
οποτεδηποτε
##γουντ
ski
συνεισφερουν
παγιων
ανωμαλιες
λογοκρισια
ταυτην
συνδετικο
##τυπια
ασχολουμαι
διερχομεν
πεντελης
μετεχει
airlines
αερισμο
λινο
##κεντρικο
consult
folli
μπαλετο
##stone
μπραντ
158
##παρουσια
προσφεραν
μελωδικ
mono
πηχ
τσατ
μωρακι
κλασσικ
χρησιμοποιησω
γεννιουνται
τρενα
##λοφο
αλλαξω
##δωση
ασχοληθω
αναπτυχθηκαν
θηριο
τωρινη
γνωριζαμε
αθροιστικ
φωναζε
σωζονται
τραχηλου
ανυπαρξια
##κρινεται
εθνικιστικο
νοτιοδυτικα
ενοτητων
##astro
ισορροπημενο
χειλος
αναπτυσ
χοληστερολη
σωτηρη
διαλογη
υπογραφεται
πηλο
διευρυνει
ευρυχωρο
miss
##γκρα
τυφλα
χειραγωγ
εκτεταμενες
αρκουδ
mass
##sche
πιστες
γιαννιτσων
υφισταμενες
βαθμιδες
##καηα
##ριδων
εκτακτες
ζηλια
χαμα
ραφτ
scan
μουσταφα
καταλοιπα
αποπειρες
διοδιων
λερο
##path
##πολιτισ
θηλαστικ
προαιρετικη
αμμοχωστου
επιταφιο
αποδειξουν
ζυμωση
πορου
##ρωμενο
##μαθ
χρηματιστηριου
τρισ
εκρηκτικη
price
παραγραφη
διανοητικ
κοπεγχαγη
καλουπι
δομημενο
brun
ισλαμικη
μεταχειρισ
##σοπουλος
σαββατοκυριακα
καταληξουμε
ασημαντο
μεσοπροθεσμ
##μαθεια
αποσβεση
αιρετο
ηρωικη
αναγνωριζουμε
επιτρεψουμε
συνακολουθ
fb
σερβιρουμε
αντιστ
κατατεθεν
αγγιγμα
νεοελλην
αντιπροσωπους
αμερικανιδα
εντατικο
circ
νεογεννητο
##ντζε
σκυρο
πολυσυχναστ
αναβατη
κυματων
ζπ
χαλαρα
διημερ
αρτηρια
ενδοχωρα
ακρ
καταπληκτικα
ποταμιου
προσαρμοσμενη
απαιτουμενων
##iana
adv
θηραμα
φιλανθρωπ
ξεπλυμα
συμβολαιογραφο
ξεφτι
διαβεβαιω
εκτακτου
χρειαστηκαν
κυκλικο
station
νεκρω
application
copyright
ενδεχομενα
επαναλαμβαν
συμπεριφερεται
διαφαινεται
208
##ψυχια
βασικοτερο
μειωμενες
πυκνη
επιθυμουσα
##αρτυρ
μακαριστο
ακαδημαικων
περιμετρικα
πισινες
εξατμιση
μιλω
παρουσιαζε
ξεχασουμε
μπορεσω
δομηση
ενισχυτη
κομβικο
λαδο
διαιτολογ
σπειρα
μολυβδο
φρυγαν
απορρητο
ζωτικ
ξωτικ
help
##βιβαστηκε
συνομηλικ
χαμπαρι
##συνειδητοποιησει
μυθιστορηματο
##πελα
πνευμονε
προεκλογικα
τσαγ
επενδυει
##δικια
φωτεινα
airport
διαλυματος
οπτικων
μελισσια
αζωτου
επικαιροποιηση
χειροτερες
καμψη
παρατυπ
κοιλοτητα
εγκλωβισμενο
κλινικων
γρεβενα
##nam
μεταλλικ
αναρριχηση
##tb
περιστασεων
##oon
υποδειξη
chap
##ζιλ
θλιβερη
ψεκασμο
##εκοψαν
προσεγγισε
νομιμως
αζερμπαιτζαν
every
crow
εντοπιζ
βαρελια
μεταπολεμικη
αναγκαιων
προκριματικα
κοιμησεω
σκουπισ
κυπριω
επιχειρηματολογ
αντιοξειδωτικη
προσφυγικη
##φρακτ
στρωσει
διοδο
##νεμεται
ευλογημενο
πολλου
δραματικ
τριλογια
τοποθετουν
dating
επιχειρησαν
κλαμα
μεσαιωνικο
παρουσης
αναχωρησει
μπλακ
ξαφνικη
κινητρων
ισραηλινη
παραδεισου
επαψε
ιλιου
συνδεθειτε
σκοπων
θρεπτικη
stream
ζερβα
ατελειες
επιφυλακτικ
λειβα
καλεσμενο
εναυσμα
κομψοτητα
ανταμοιβη
κενες
ενδελεχ
σκοτεινες
##kar
αθανασιο
##τρομ
ζησω
##λαδα
##sex
μουσουλμανικη
ολυμπιονικη
καθαριστρι
αναζητησουν
απολυμανση
τυρναβο
heavy
ιστιο
καθορισμου
σμυρ
ηγεσιες
##anger
william
##πορτα
εζησα
ανυπαρκτ
λαμπροτητα
ανασυρ
παραλαβε
##φιλντ
##εσσα
1600
ασημενια
υποεργο
##nb
εμβαθυν
##lov
υδραργυρο
ααδε
ορθογωνιο
εξεγερσ
αβοκαντο
πυρηνικων
##ines
αρκεσ
ευοσμο
θεατρικου
πικρη
burger
αλαζονεια
##προγραμματισμενη
εποικοδομητικ
αοριστο
cocktail
fall
θυμηθ
toy
καιγεται
520
λορδ
ωμου
εκκρεμοτητε
εθεσαν
ακολουθω
μορφωμα
πηγαινουμε
παππουδες
πληρωθει
τυχερη
##ized
sign
αναστασεως
ασφαλιζ
αμφισβητουν
περιελθει
σβηνει
χαρακτηρισει
αηττητο
περικοπων
δαμασκο
βραζουμε
συμπληρωσετε
κατανοουν
κεραμιδι
αντιβιοτικα
εθνικιστε
χουαν
μελλοντικων
χαρτων
τονισουμε
χαρτοφυλακιο
αδεσποτα
##βομβαρδισ
chart
βρετανικου
γερακα
περιστρεφεται
σοκακια
σκουρ
##αισθησι
ευπ
μειζονα
αλλοιωσει
##εμπορ
πλακε
καλπ
κοουτς
ευρυζωνικ
προεκλογικο
πασχοντ
γενεα
κυνο
das
επιλεγεται
##καλλιεργητ
##χαλα
deep
αβιαστ
αρχαιολογικων
προκαταρκτικη
κολλητο
καταλονια
ζαγορι
στοματικο
συνειδητοποιη
ενδεκαδα
εγγυησεων
συντομια
σπλαχν
##osa
αποφευχθουν
θερμες
##ои
μελισσι
καταληψεις
υποστηρικτη
##μακεδονων
απογονου
ημεις
##ευθε
εσωκομματικ
αναλαμβανοντα
συναισθηματικες
αργοστολι
##mond
ακολουθους
πεζου
εκβιαζ
προαγ
προστατευτικα
αφορολογητο
εκλεγεται
κρινω
##isto
ειδησεογραφικ
παθογον
δραστηριοποιηση
αγωνιστουν
φιλολογια
τσιμπημα
διαβουλευσεις
##τιμωντας
ιπποκρατη
εκσυγχρονισμου
παναγιο
συμπαγε
##ποιουσε
παρανομια
αναποφευκτη
επακολουθη
##τιμω
πορτοκαλιου
μπατσο
εισηγμεν
1908
λουκετο
συνειδητοποιησα
two
αποσκευες
συγκρατηση
δοντι
##τσοπουλο
λυνει
##τεινεται
κριτ
κτηματα
μαστορα
κλαματα
εμπλεκ
προσγειωση
978
σερβιρεται
τεκμηρια
εμπλεκομενους
adventure
αρχιτεκτονων
bag
σπιθα
μεταλλαγμεν
κλεβει
αναδεικνυοντας
αξιοσημειωτη
φορεσι
μοσχαρι
επιτραπεζιο
δανιηλ
ουαλια
προσιτο
γνωστικη
##λογιστικων
snow
προσβασιμοτητα
καραιβικη
κυβερνουν
γιγαντα
por
flow
συνεργαζομαστε
καλυβα
διατεθειμενοι
λομπι
##βεβλη
λαμψ
μπιρα
εγινα
απαρτιζουν
γατο
basket
##μολ
βρεφικη
σεβασμιωτατου
εισπραξει
τρομοκρατικες
##μαχιες
μεταφορικο
tap
κρυπτογραφηση
εννοιολογικ
ιακωβος
ωδειου
αχαια
απατεων
##χαχαχαχα
αντιθετες
ηνλ
πρωταθληματων
διδασκαλι
φευγοντας
προχωραμε
στραβο
φραουλα
μπαλι
υπενθυμιση
συμψηφισμο
ανυπαρκτη
στατιστικο
μεταπτυχιακα
παραλιακο
εκμισθωση
partner
##ρσι
φραουλες
συναδελφου
blu
skoda
ασφαλειες
συνεχιζω
κοινωνικοποιηση
μανε
κολοσσ
wars
μαζευει
θρασ
ποδηλατων
ανισοτητες
##χορη
πινελια
χειρογραφο
think
##τρεπεται
κεφαλιου
ρωμαιους
καταπρασινο
τρομακτικ
ασυνειδητ
σκεφτεστε
αποσκευων
αστρονομ
καθισα
ελαττωματα
εκλογικα
απορριπτοντα
καρακα
ευρωβουλευτ
ραε
δλδ
##γνι
οραματα
βρεφικο
χονγκ
δυσαρεστες
cruise
##πτωχευ
υπερμετρ
θυμου
κυτταρικ
ανακοινωνοντα
σκορδα
πλασε
label
function
κεελπ
φοιβο
προφητεια
γυρισουν
λογισμικ
##spect
##παζ
##ρινγκ
εισαγετ
συμβαλλομενο
##003
αιχμα
κρητικου
φρεατι
##κοσμο
γεωργικο
ημερησιω
ολοκληρωσουν
διαπιστωσα
##kle
υποκειμενου
sav
cookie
adam
κρατηθει
cook
αμαξωμα
χαριζουν
βυσμα
υπογραφηκε
βασιλι
λειψει
##ζομουν
ολοκληρωμενα
παπαγου
bun
ανακατευοντας
σκουλαρικια
rooms
δυσπιστια
viral
##θαλαμο
θαυμαστο
##σουλ
##class
##lig
πεταξαν
υπουργικ
επιπλωμεν
επικρατουσα
καλαντα
μικροσκοπιο
προετοιμαστει
επιλεγονται
καυγα
βιβλικ
ψηλοτερο
παραμορφωση
##βρη
##aster
τραγουδαει
αγορασω
##ward
κοινωφελη
συναντι
επισημανω
##γιστ
αποκαταστησει
γεωτρηση
##eia
ανασχηματισμο
κατσε
##hon
χαρτογραφηση
απασχολουμεν
σχολιων
account
λεηλασια
ψυχοκοινωνικ
αριθμητικα
στιχ
κρατιδιο
αληθες
κερδισετε
επιδοξο
ευαισθητοποιη
κελια
συστησει
##ηψλ
##script
##πουρ
θανατηφορο
σταθερου
match
συνταχθηκε
mig
βορειοδυτικα
##sports
οχλο
αιχμηρ
χλιαρο
ανατομια
ραλλη
προκηρυσσει
αποστειλει
1911
δυσκολευονται
αναγκαζεται
##mel
αναγνωρισμενη
tablets
δικαστων
xxx
διπλωματικες
##λογωντας
φιλετο
λαζαριδη
αποκρυψη
επιτυγχανει
ισολογισμου
στομαχου
κερατα
εξισορροπ
##γνωμο
sep
ευτυχισμενοι
κουρδο
hardware
απεγκλωβισ
ασπι
ξετυλιγ
γηπεδουχου
επληξε
μοναρχ
##aba
κερασια
μεταλλαξη
##διδεται
αγωνιστικου
νησιδα
##cg
αντικαρκινικ
ξορκι
αποκτηστε
χτυπησ
μειονοτικ
εξηγησω
αγκυλ
ιαχειριση
συντρεχου
συναφεις
ισαακ
διαδραματισε
επιμονα
ειπατε
αστεροσκοπειο
ντοπιων
συνδυασει
εξεταζουν
σιντ
μορφολογια
πτολεμαι
χριστοφορος
θρυλου
παθων
επιδιορθω
##ιαζουν
φυτεψ
παθογενει
ναυτια
σημανει
ενδεικτικες
διαδρομους
πεζοδρομ
εντυπωσιαζει
αιγιαλο
παλεψου
λεγομενου
απασχολημενο
ντουμπαι
beta
συναντηθουν
χαλαρωσετε
version
συγκροτηθηκε
γομ
ανεβηκαν
αντιδημαρχου
μελανια
βασω
αγαπητη
pink
διαφημιστικα
τεχν
##βιβλιοθηκων
δημοκρατι
προβαλλοντα
μιλησαμε
poker
προαπαιτουμεν
παρασυρει
logo
ευαγγελιστ
κωστη
στερεοτυπ
psi
λογοτεχνικα
διεπεται
ιορδανια
##τιμωρειται
πτυχιουχος
μισθολογιο
ανωτατων
μπαμπου
κληθηκαν
αναλογε
ψηλοτερα
αιωνιοτητα
λαζαρου
μιχαλολιακο
επαναφερου
τριχοπτωση
##τελεσματικοτερη
αδυναμη
λαυριο
ακουνε
χαρακτηριστηκε
##οφθαλμ
λαυριου
ρηση
ντοκουμεντα
ρουβικωνα
##load
##ρχειο
##καλω
ψυχαναλυτ
καστανα
μεταπολεμικ
δημαρχια
pou
απευθυνθειτε
γνωμες
εβδομαδιαιο
ολεθρι
διαγραμματα
τερματικο
ακροατη
αποκεντρωμενη
αυθαιρετων
πεθανουν
##στρατι
βουλγαροι
αποηχο
ελαβα
διαδικ
εγενετ
ιππου
ληξιπροθεσμων
υπευθυνες
πανισχυρο
μεριμνη
καρπαθο
δρυμο
καρδιακο
αερολιμενα
στρασβουργο
προγραμματισει
##μετρικο
επηρεαστει
##rov
καταναλωτικο
προγνωστικα
αναδημοσιευση
εκδοθηκαν
πολιν
##pot
φθηνοτερη
υποστηριζου
##κορασιδων
μεταναστευτικ
τοκετου
εφυγα
δικαστη
θωρ
κρυμμενα
θεικο
καταγοταν
παρνασσο
τοποθετειτε
διεγειρει
εντοπισμου
σκηνοθετικ
feature
κεινο
καλλιεργουν
συμμαχ
πορφυρα
προστατεψει
λειτουργουσαν
##τσουκ
##σκοπιο
εκστρατει
340
προαπαιτουμενα
υποστηριξαν
χορευει
κυβερνωντες
##μινα
κοιταζοντα
θαυματουργο
φορολογουμενους
wolf
##πδ
μοιρων
εξαφανιζοντα
τηλεθεαση
συγκληση
φτιαξτε
ονομαζουν
μπομπονιερε
blues
ανοιγματος
ηλεκτρα
number
εναποθεσ
διατηρηθηκ
victoria
ασκησ
προωρο
κουταλι
παπαντωνιου
ισχυροτερη
καροτσι
αξιωματ
επαναληφθει
καστρι
καλωδιου
κιτρινα
επιτεθει
προαιρετικο
αναπτυξιακες
βλεπαμε
πρωταγωνιστησε
τραπεζικω
##χαρη
ανενοχλητ
ημερομισθι
αδειοδοτ
κουπε
ιατρ
ισολογισμο
ανιχνευτη
entry
##σκηνοθετ
προληπτικα
κοστιζουν
ρωμανο
dual
υπερασπιζεται
επιγεια
##λουκα
αρενα
πολυπολιτισμικ
ερθετε
λενα
##ζομεν
ευχηθηκε
υφηλιο
δεινο
συνταγογραφ
καυστηρα
επιβεβαιωθηκε
φανουν
νομιζε
αβιβ
θαλαμου
θηριωδ
οργανωνουν
δυσκοιλιοτητα
απεραντη
συνεταιρισμω
κεκτημεν
αισθησιακ
ξεπερασαν
ιουνη
[...]
